<unk>	0
<s>	0
</s>	0
<pad>	0
<sep>	0
<user>	0
<bot>	0
▁the	-3.12258
.	-3.29442
,	-3.33422
s	-3.61844
▁of	-3.73065
▁and	-3.86394
▁in	-3.95721
▁a	-4.17672
▁to	-4.22241
▁was	-4.67451
▁	-4.71787
-	-4.88501
▁"	-4.92701
▁is	-4.97068
▁for	-5.11266
'	-5.16176
▁on	-5.18742
"	-5.19195
▁as	-5.27313
▁with	-5.28096
▁by	-5.28942
▁The	-5.40729
▁(	-5.47401
▁that	-5.52015
▁at	-5.56462
▁from	-5.61747
▁his	-5.7136
The	-5.78373
)	-5.8481
▁he	-5.85127
▁an	-5.88652
ing	-5.91097
ed	-6.0139
▁were	-6.10655
▁which	-6.19271
▁He	-6.20622
▁it	-6.2068
▁are	-6.21762
e	-6.2179
d	-6.26364
▁In	-6.28465
▁be	-6.3048
▁also	-6.35074
▁had	-6.38562
▁has	-6.3932
a	-6.42114
;	-6.42269
▁first	-6.42363
:	-6.42492
y	-6.48069
▁or	-6.53383
▁It	-6.54239
er	-6.55968
t	-6.58619
▁A	-6.59113
In	-6.59274
▁their	-6.59285
▁her	-6.62494
ly	-6.62614
th	-6.63616
▁who	-6.65162
▁one	-6.68175
▁not	-6.68932
▁but	-6.69046
▁its	-6.70116
",	-6.75365
▁two	-6.76587
n	-6.78462
▁have	-6.79205
▁this	-6.81433
▁been	-6.82483
o	-6.84184
i	-6.84238
al	-6.88009
".	-6.91988
A	-6.93376
▁after	-6.93795
in	-6.95997
),	-6.98395
S	-6.99826
es	-7.01856
▁she	-7.02683
).	-7.06046
▁other	-7.06309
▁time	-7.06559
▁into	-7.08163
▁they	-7.09965
▁I	-7.15766
▁over	-7.16646
▁all	-7.18683
▁S	-7.21295
▁when	-7.23136
r	-7.23242
▁would	-7.24141
▁New	-7.24229
▁where	-7.2655
▁de	-7.27305
▁more	-7.28432
▁during	-7.29364
▁season	-7.29525
▁new	-7.29545
m	-7.30354
▁years	-7.30666
▁up	-7.31472
▁out	-7.33182
▁between	-7.33485
▁three	-7.34241
▁only	-7.35193
▁re	-7.365
▁him	-7.37446
▁made	-7.38285
▁later	-7.41373
▁part	-7.41928
▁team	-7.4287
▁University	-7.43344
▁She	-7.43474
▁about	-7.43732
▁film	-7.44929
▁can	-7.44936
man	-7.45451
k	-7.45714
an	-7.46467
▁became	-7.47093
▁under	-7.48582
▁year	-7.4903
▁then	-7.4912
▁used	-7.4947
▁known	-7.49838
▁most	-7.50808
▁United	-7.51148
▁This	-7.51366
▁1	-7.51711
▁such	-7.51851
on	-7.51975
▁B	-7.51982
C	-7.52228
▁second	-7.52301
or	-7.5261
g	-7.52688
/	-7.53254
▁being	-7.55402
▁well	-7.55495
▁than	-7.55724
▁2	-7.55822
B	-7.56785
▁American	-7.57948
▁against	-7.58448
en	-7.59521
▁U	-7.60344
▁work	-7.60421
▁including	-7.60497
▁E	-7.61475
▁C	-7.62312
▁through	-7.62419
▁before	-7.63324
▁some	-7.63361
▁played	-7.65175
re	-7.66597
▁while	-7.66707
▁family	-7.66784
▁there	-7.669
▁until	-7.68547
l	-7.68793
▁P	-7.69265
▁D	-7.69687
▁many	-7.70615
▁album	-7.70777
▁3	-7.70806
▁released	-7.71391
▁both	-7.71666
▁–	-7.72648
▁May	-7.73083
▁G	-7.73164
▁won	-7.73422
▁school	-7.73712
u	-7.73783
c	-7.74281
us	-7.74383
▁World	-7.75111
▁National	-7.75172
▁number	-7.75363
▁name	-7.7609
▁no	-7.76393
z	-7.76642
▁March	-7.77327
▁people	-7.77626
amp	-7.77656
▁On	-7.78109
▁K	-7.78388
▁M	-7.78475
▁life	-7.7866
▁series	-7.79269
▁them	-7.7961
▁four	-7.79749
to	-7.80289
▁career	-7.80385
▁O	-7.8084
ers	-7.81246
▁August	-7.81365
▁January	-7.81428
On	-7.82003
▁States	-7.82553
D	-7.82596
K	-7.82648
."	-7.82983
le	-7.83073
st	-7.83284
ic	-7.83427
▁may	-7.83576
ar	-7.84118
▁area	-7.84977
▁4	-7.85096
▁September	-7.85245
▁T	-7.86026
I	-7.86562
▁following	-7.86802
▁October	-7.86993
&	-7.8714
▁St	-7.87208
na	-7.8724
▁found	-7.87263
▁June	-7.87688
p	-7.87839
▁same	-7.88004
▁April	-7.88206
–	-7.88348
b	-7.886
de	-7.88786
▁War	-7.88831
▁several	-7.88917
▁called	-7.89414
▁November	-7.89549
▁game	-7.8966
▁December	-7.89905
▁July	-7.8991
▁so	-7.90254
▁16	-7.90669
▁South	-7.90845
▁17	-7.90848
’	-7.90924
▁will	-7.91795
ton	-7.9252
▁early	-7.92819
h	-7.9288
G	-7.93288
▁began	-7.93407
▁end	-7.93812
▁School	-7.93848
▁group	-7.9501
▁state	-7.95239
▁since	-7.95271
▁R	-7.95292
He	-7.95644
▁held	-7.96281
E	-7.97677
▁member	-7.9886
▁They	-7.99291
▁place	-7.99397
▁5	-7.99492
ation	-7.99537
▁County	-7.99603
▁15	-7.99806
▁F	-7.9983
▁took	-8.0071
▁government	-8.00928
▁these	-8.00934
ne	-8.00986
F	-8.01084
the	-8.01107
▁York	-8.01479
el	-8.02275
▁February	-8.02367
▁located	-8.02589
▁As	-8.0267
▁After	-8.02803
▁company	-8.03098
ia	-8.03259
ry	-8.03322
▁use	-8.03861
▁served	-8.04039
▁former	-8.04351
▁back	-8.04427
ist	-8.04601
▁W	-8.04691
ta	-8.05006
▁John	-8.05149
▁home	-8.05186
▁music	-8.05246
P	-8.05926
T	-8.06105
▁each	-8.06343
▁born	-8.07058
▁received	-8.07094
▁His	-8.0719
▁At	-8.07311
▁named	-8.07717
▁village	-8.08153
▁League	-8.08273
born	-8.0845
▁10	-8.09
▁city	-8.0917
▁high	-8.09714
▁song	-8.10734
▁club	-8.11164
▁single	-8.11382
2	-8.11948
▁British	-8.12068
▁City	-8.12479
▁L	-8.13508
▁within	-8.13612
▁State	-8.14167
▁station	-8.14224
▁did	-8.15134
▁built	-8.15313
▁local	-8.15377
te	-8.1593
co	-8.15972
▁due	-8.15998
▁12	-8.16145
▁band	-8.16307
ch	-8.1691
▁&	-8.16947
▁could	-8.16984
▁around	-8.17097
W	-8.17146
ra	-8.17299
▁North	-8.17387
▁line	-8.17795
▁based	-8.1804
▁N	-8.1824
il	-8.18314
▁6	-8.18507
▁population	-8.18946
▁left	-8.19157
▁co	-8.19189
▁building	-8.1919
▁H	-8.19216
▁system	-8.19323
▁species	-8.19675
▁20	-8.19839
ma	-8.20206
▁public	-8.20422
▁However	-8.20537
▁final	-8.20577
▁said	-8.21106
▁V	-8.2132
▁along	-8.21398
▁published	-8.21455
f	-8.21635
▁set	-8.21726
▁district	-8.2185
▁show	-8.21863
▁day	-8.21942
1	-8.22244
▁five	-8.22328
is	-8.22488
V	-8.22696
▁7	-8.22822
▁'	-8.2287
▁un	-8.23315
▁any	-8.23457
ley	-8.2353
son	-8.23705
▁died	-8.23753
ian	-8.2381
▁include	-8.24039
▁J	-8.24297
at	-8.24358
O	-8.24589
▁long	-8.24599
ity	-8.24613
la	-8.24736
▁third	-8.25452
▁now	-8.25567
▁national	-8.26055
▁West	-8.26223
▁included	-8.26362
▁own	-8.26392
N	-8.26448
it	-8.26933
▁members	-8.27199
▁play	-8.27491
M	-8.27535
▁death	-8.2791
L	-8.28195
▁14	-8.28772
▁last	-8.28833
▁because	-8.28896
▁De	-8.29001
▁La	-8.29165
R	-8.2931
land	-8.29328
lt	-8.29679
▁like	-8.29711
able	-8.30059
▁District	-8.30269
▁world	-8.30316
▁Re	-8.30405
▁century	-8.30677
▁College	-8.30885
▁German	-8.3133
H	-8.32454
▁moved	-8.32638
▁large	-8.32771
▁small	-8.32836
et	-8.32851
▁Al	-8.33196
▁main	-8.33247
▁north	-8.33331
▁8	-8.33512
▁side	-8.3365
ro	-8.3399
3	-8.34286
▁book	-8.34482
▁million	-8.34515
▁off	-8.34579
▁service	-8.34593
▁son	-8.3512
▁13	-8.35254
no	-8.35553
ir	-8.3653
▁history	-8.36661
da	-8.36809
History	-8.36849
as	-8.3748
▁women	-8.38213
ion	-8.38239
▁men	-8.38478
▁French	-8.38601
▁children	-8.38805
▁led	-8.39836
▁11	-8.39848
▁down	-8.39892
▁another	-8.40154
ive	-8.40179
4	-8.4044
ate	-8.4061
▁No	-8.40646
▁still	-8.4067
▁("	-8.40834
x	-8.40989
▁town	-8.41202
▁do	-8.41212
▁Co	-8.41311
▁near	-8.41517
▁best	-8.41594
▁major	-8.41687
▁London	-8.41735
up	-8.41775
▁father	-8.4186
▁English	-8.42125
▁record	-8.42306
▁very	-8.42452
ism	-8.42515
▁started	-8.4253
j	-8.42532
li	-8.42778
▁announced	-8.43286
▁house	-8.43342
▁south	-8.43556
ur	-8.43669
▁water	-8.44005
▁football	-8.44034
▁9	-8.4406
▁war	-8.44103
ge	-8.44116
▁different	-8.44184
▁top	-8.44666
w	-8.4502
▁head	-8.45785
▁title	-8.46075
▁For	-8.46111
ine	-8.46145
▁again	-8.46347
▁Cup	-8.46349
▁original	-8.46554
▁described	-8.46653
▁came	-8.46773
▁role	-8.46987
▁House	-8.47139
▁established	-8.47256
▁order	-8.47314
ca	-8.47336
▁if	-8.47461
U	-8.47525
▁worked	-8.47748
▁went	-8.47759
▁six	-8.47839
▁II	-8.47909
ment	-8.4799
ka	-8.48105
▁games	-8.48281
▁late	-8.48521
▁development	-8.48772
é	-8.48829
▁joined	-8.49054
▁those	-8.49156
▁just	-8.49301
▁support	-8.49305
▁form	-8.49338
▁make	-8.49349
▁US	-8.49461
▁There	-8.49509
um	-8.4968
▁total	-8.49836
▁period	-8.50099
")	-8.50999
▁age	-8.51136
▁River	-8.5129
nd	-8.5167
be	-8.51823
▁18	-8.52042
▁country	-8.52481
me	-8.52885
▁International	-8.53039
▁-	-8.53063
am	-8.53354
▁San	-8.53414
age	-8.53429
ga	-8.5344
ty	-8.53486
▁player	-8.53598
se	-8.53634
ter	-8.53664
▁per	-8.54005
id	-8.55879
▁often	-8.55951
▁become	-8.56169
▁next	-8.56172
▁produced	-8.56454
▁what	-8.56462
▁various	-8.56851
ri	-8.56949
ie	-8.57142
gt	-8.5743
▁19	-8.57633
▁All	-8.57672
ve	-8.57757
v	-8.57759
and	-8.57917
▁match	-8.58116
▁community	-8.58125
▁election	-8.58137
▁An	-8.5815
▁short	-8.58271
▁much	-8.58375
br	-8.58729
It	-8.58825
▁returned	-8.5885
%	-8.58916
▁having	-8.58919
▁Park	-8.59136
▁East	-8.59162
▁power	-8.59244
▁non	-8.59656
▁given	-8.59661
▁among	-8.59685
ul	-8.59847
▁India	-8.6004
▁England	-8.60221
ce	-8.60329
▁professional	-8.60341
▁married	-8.60519
▁church	-8.60597
▁Le	-8.60721
▁win	-8.60729
ni	-8.60758
go	-8.60805
▁To	-8.61011
▁general	-8.61171
▁position	-8.61461
▁debut	-8.61521
▁(19	-8.61694
J	-8.61834
▁Mar	-8.61838
▁2014	-8.6189
▁take	-8.62103
▁wrote	-8.62106
▁created	-8.6212
ke	-8.62308
ner	-8.63093
After	-8.63293
▁Street	-8.63638
ad	-8.63802
▁Me	-8.63805
▁written	-8.63845
▁event	-8.63896
▁way	-8.63913
▁Australia	-8.64374
▁European	-8.64587
▁law	-8.64593
▁Party	-8.64653
▁round	-8.64766
▁using	-8.64778
▁post	-8.6489
▁political	-8.65076
do	-8.65315
▁During	-8.65328
▁production	-8.65389
▁site	-8.65508
▁Church	-8.65961
6	-8.66081
ary	-8.66197
di	-8.66362
▁students	-8.66516
▁research	-8.66846
▁east	-8.67235
ti	-8.67403
▁however	-8.68141
▁even	-8.68275
▁Division	-8.68393
▁continued	-8.68419
▁pre	-8.68461
▁30	-8.68485
▁few	-8.68657
▁program	-8.68874
▁2011	-8.6895
▁Army	-8.69219
▁Council	-8.69399
ha	-8.69454
▁run	-8.69463
▁television	-8.69472
▁works	-8.70023
▁signed	-8.70088
▁appointed	-8.70988
▁video	-8.7108
▁lost	-8.71267
▁land	-8.71274
▁art	-8.7136
▁man	-8.71773
▁international	-8.71794
▁full	-8.71889
▁President	-8.72009
▁director	-8.72066
▁Her	-8.72336
▁project	-8.72557
▁founded	-8.72654
▁version	-8.72925
▁opened	-8.72972
▁party	-8.72993
▁right	-8.73252
un	-8.73309
▁design	-8.73441
▁region	-8.73601
▁business	-8.73676
—	-8.73842
▁France	-8.73851
▁field	-8.73906
▁lead	-8.74171
▁half	-8.74238
one	-8.74364
den	-8.74405
5	-8.74452
sh	-8.74656
▁General	-8.74827
▁car	-8.75567
▁without	-8.75632
▁recorded	-8.75726
▁level	-8.75872
ck	-8.75909
▁Sa	-8.75971
year	-8.7605
▁Canada	-8.76066
▁appeared	-8.76152
va	-8.76251
This	-8.76266
▁military	-8.76266
▁“	-8.76282
ated	-8.76505
▁release	-8.76608
▁One	-8.76758
▁working	-8.76781
▁further	-8.76809
▁Association	-8.76981
▁education	-8.77138
▁west	-8.77178
▁league	-8.7734
▁America	-8.77366
▁When	-8.77461
▁formula	-8.77548
men	-8.7759
ya	-8.77835
▁()	-8.77859
▁point	-8.77969
ling	-8.78006
▁old	-8.78032
▁These	-8.78114
lin	-8.78163
▁elected	-8.78194
▁High	-8.78196
ant	-8.784
7	-8.78403
▁addition	-8.78511
8	-8.78657
ent	-8.78683
▁Con	-8.78884
▁William	-8.79054
▁2010	-8.79103
▁Award	-8.79243
▁Australian	-8.79387
os	-8.79577
Re	-8.79654
▁social	-8.7966
▁Indian	-8.79678
▁days	-8.79706
▁formed	-8.79712
▁California	-8.80019
ba	-8.80024
▁considered	-8.8004
ak	-8.80087
ized	-8.8009
▁result	-8.80237
▁25	-8.80362
As	-8.80754
▁office	-8.80803
▁control	-8.80915
▁points	-8.80984
▁wife	-8.81404
ham	-8.81451
▁2015	-8.81541
▁George	-8.81732
▁Man	-8.81949
lo	-8.82229
▁Royal	-8.82338
▁Court	-8.82464
▁21	-8.82467
ness	-8.82555
▁important	-8.82558
▁c	-8.82631
▁King	-8.8281
▁race	-8.8299
▁making	-8.83308
▁2013	-8.83423
▁24	-8.83491
im	-8.83664
est	-8.84122
▁Be	-8.84124
▁Germany	-8.84355
▁Union	-8.84383
▁present	-8.8445
▁list	-8.84524
▁together	-8.84743
▁finished	-8.84786
by	-8.84924
▁case	-8.84995
▁Mo	-8.85009
▁Bo	-8.85089
▁live	-8.85401
▁track	-8.85602
▁By	-8.85642
der	-8.85811
▁Na	-8.86321
▁times	-8.86461
▁playing	-8.86464
ous	-8.866
▁developed	-8.86792
▁dis	-8.86839
▁Championship	-8.86892
▁popular	-8.8693
▁Go	-8.87174
▁teams	-8.87562
▁style	-8.8781
▁open	-8.87818
▁James	-8.87825
▁free	-8.87992
▁story	-8.88058
▁mother	-8.8828
▁across	-8.88989
mo	-8.89104
▁himself	-8.89428
▁Hall	-8.89719
▁El	-8.89724
▁sub	-8.89834
▁daughter	-8.89844
▁Road	-8.89878
▁refer	-8.8991
▁events	-8.90244
wa	-8.90325
ja	-8.90591
ang	-8.90605
con	-8.90738
rd	-8.90771
▁Company	-8.90897
▁m	-8.90995
▁sold	-8.91008
▁2009	-8.91022
ol	-8.91042
▁services	-8.9106
▁China	-8.91067
time	-8.91522
ish	-8.9156
tic	-8.91818
▁body	-8.91963
▁we	-8.92131
▁Ka	-8.9219
▁directed	-8.92526
▁similar	-8.92688
▁character	-8.92735
▁performed	-8.9282
]	-8.92901
▁con	-8.9291
▁construction	-8.92917
▁help	-8.93024
▁Ha	-8.93139
9	-8.93222
Early	-8.93356
way	-8.93432
ov	-8.93482
▁Air	-8.93562
▁seven	-8.93754
▁gave	-8.93816
▁how	-8.93833
▁completed	-8.94068
▁1980	-8.94263
▁go	-8.94309
he	-8.94393
▁road	-8.94434
ut	-8.94592
▁Li	-8.94617
ki	-8.94702
▁followed	-8.9501
▁contract	-8.9522
▁performance	-8.95246
▁fire	-8.95276
▁college	-8.95284
▁young	-8.95413
ler	-8.9543
▁areas	-8.95463
▁president	-8.95518
bi	-8.95541
▁22	-8.95614
▁Central	-8.95626
▁designed	-8.95849
▁process	-8.9599
▁Art	-8.96139
▁coach	-8.96188
▁2012	-8.96251
per	-8.96306
tra	-8.96315
ting	-8.96318
▁Institute	-8.96511
▁Act	-8.96526
▁air	-8.96531
▁term	-8.96667
▁competition	-8.96723
▁example	-8.96729
▁pro	-8.96779
X	-8.9678
ted	-8.96788
ina	-8.96989
ies	-8.97013
▁modern	-8.97172
▁Z	-8.97344
ster	-8.97391
ko	-8.97436
▁episode	-8.97615
▁available	-8.97882
▁1,	-8.97887
▁remained	-8.97917
ard	-8.97993
▁Department	-8.98106
▁months	-8.98234
▁awarded	-8.98293
▁Ko	-8.98376
▁currently	-8.98526
!	-8.98603
▁return	-8.98653
▁away	-8.98683
▁common	-8.98712
▁mid	-8.98853
▁taken	-8.99011
▁although	-8.99048
▁never	-8.99054
▁Minister	-8.99105
▁brother	-8.99175
▁special	-8.99249
▁100	-8.99415
▁Center	-8.99544
▁ten	-8.99572
▁reported	-8.99598
▁2008	-8.99703
▁should	-8.99876
▁Europe	-8.99925
▁Club	-9.00024
▁Group	-9.00032
▁p	-9.00045
▁Paul	-9.00063
▁2006	-9.0016
▁features	-9.00267
▁range	-9.00429
▁featured	-9.00558
”	-9.00585
▁front	-9.00594
▁eight	-9.00657
▁stage	-9.00826
▁Car	-9.00924
lu	-9.00958
po	-9.01001
▁23	-9.01046
▁So	-9.0113
ber	-9.01146
sa	-9.01221
▁every	-9.01467
▁white	-9.01496
▁model	-9.01525
▁Ca	-9.01698
▁2014,	-9.01756
line	-9.01919
mer	-9.02092
▁current	-9.02242
▁Ma	-9.0229
io	-9.02324
▁training	-9.02393
▁2016	-9.02466
field	-9.02495
▁Di	-9.02687
▁information	-9.02877
▁Canadian	-9.02893
▁players	-9.0294
▁official	-9.03008
ll	-9.03026
ah	-9.03048
▁Ar	-9.0322
▁though	-9.03244
▁study	-9.03391
▁originally	-9.03438
▁Se	-9.0349
▁1970	-9.03501
▁Poland	-9.03541
▁campaign	-9.03577
▁light	-9.03616
▁From	-9.03648
▁leading	-9.03923
▁Lo	-9.0397
▁songs	-9.03974
▁police	-9.03975
pa	-9.04012
▁(18	-9.04071
▁language	-9.04208
▁approximately	-9.04459
▁studio	-9.04498
▁involved	-9.04529
▁less	-9.04719
▁added	-9.04807
▁once	-9.04834
▁Society	-9.05015
▁good	-9.05106
▁Ho	-9.05134
side	-9.05265
▁Academy	-9.05274
▁Russian	-9.056
▁Japan	-9.05656
▁Ne	-9.05669
▁human	-9.05817
bo	-9.05937
ite	-9.05982
▁media	-9.05999
ally	-9.0604
▁throughout	-9.06337
vi	-9.06339
▁great	-9.06416
▁black	-9.06499
▁scored	-9.06501
au	-9.06572
▁sent	-9.06574
▁Japanese	-9.06623
▁fourth	-9.07219
▁close	-9.07246
▁does	-9.07338
▁court	-9.07344
▁capital	-9.0738
▁Washington	-9.07439
▁UK	-9.07704
ance	-9.07733
▁stated	-9.07799
▁get	-9.0789
▁Red	-9.07946
▁David	-9.08011
▁class	-9.0819
▁others	-9.08267
▁degree	-9.08288
▁First	-9.08296
▁forces	-9.08303
▁Italian	-9.085
rs	-9.08513
▁includes	-9.08573
▁private	-9.08575
▁seen	-9.08605
▁eventually	-9.08621
▁Music	-9.08698
com	-9.08735
▁sea	-9.08866
▁Po	-9.09017
▁Dr	-9.09325
▁previous	-9.09375
▁tournament	-9.09401
ger	-9.09533
▁start	-9.09533
▁e	-9.0961
▁Film	-9.09731
▁Island	-9.10034
ru	-9.10035
▁low	-9.10035
▁Chinese	-9.10211
▁killed	-9.10232
que	-9.10239
▁able	-9.10255
ho	-9.10271
An	-9.10278
less	-9.10304
▁largest	-9.10321
At	-9.10329
ization	-9.10331
Z	-9.10345
ver	-9.10393
▁countries	-9.10602
▁26	-9.10803
ji	-9.10979
les	-9.11028
0	-9.11096
▁Pro	-9.11098
–19	-9.11183
Career	-9.11218
min	-9.11246
▁goal	-9.11294
▁28	-9.11336
▁attended	-9.1136
▁Robert	-9.11483
▁Western	-9.11489
ze	-9.11623
▁replaced	-9.11763
▁you	-9.11793
mi	-9.1181
ville	-9.11882
▁must	-9.11884
▁radio	-9.12034
▁provided	-9.12048
ship	-9.1223
▁Bar	-9.12512
▁2015,	-9.12521
off	-9.12562
▁27	-9.12606
▁writing	-9.12732
▁ground	-9.12982
▁put	-9.13061
▁administrative	-9.13131
▁TV	-9.13358
pe	-9.1349
▁reached	-9.13513
ran	-9.13518
▁Lake	-9.1356
▁listed	-9.14137
▁decided	-9.14144
▁Thomas	-9.14188
▁Bay	-9.14189
▁With	-9.14268
ny	-9.14335
ana	-9.1447
▁ex	-9.14502
▁center	-9.14685
▁division	-9.14712
▁1960	-9.1496
za	-9.15024
ey	-9.15214
▁attack	-9.15251
▁While	-9.15315
▁X	-9.15352
▁artist	-9.15357
▁organization	-9.15429
▁success	-9.15524
▁saw	-9.15571
▁central	-9.15626
▁placed	-9.15629
dy	-9.15718
sen	-9.15907
ek	-9.15942
▁board	-9.15944
▁Football	-9.16067
▁d	-9.16189
▁change	-9.16209
ence	-9.16277
▁represented	-9.16328
ron	-9.16348
▁di	-9.16665
▁section	-9.16668
▁novel	-9.16668
em	-9.1668
▁Ra	-9.16741
La	-9.17033
vo	-9.17128
▁Africa	-9.17221
▁African	-9.17294
▁winning	-9.1734
out	-9.17668
▁anti	-9.17683
▁via	-9.17704
Y	-9.17877
▁railway	-9.1808
▁Christian	-9.18099
30	-9.18173
Le	-9.18227
▁2013,	-9.18263
▁night	-9.18316
ung	-9.18391
▁above	-9.18394
▁Ro	-9.18434
gen	-9.18831
▁km	-9.18927
▁hand	-9.19101
▁provide	-9.19326
▁la	-9.19636
▁least	-9.19761
▁ship	-9.19775
▁Committee	-9.19868
(	-9.19887
▁Su	-9.20237
▁Museum	-9.20278
▁behind	-9.20293
De	-9.20434
▁al	-9.20716
▁upon	-9.20725
▁Roman	-9.20749
ig	-9.20883
▁structure	-9.2099
▁Charles	-9.20996
we	-9.21301
▁space	-9.21305
ong	-9.2132
▁groups	-9.21355
ology	-9.2142
▁According	-9.21423
▁either	-9.2147
▁Paris	-9.2169
▁me	-9.21705
hu	-9.21828
▁Black	-9.21917
old	-9.21919
▁introduced	-9.21945
▁shows	-9.21958
▁2007	-9.22038
▁author	-9.22159
▁successful	-9.22383
▁previously	-9.2239
ning	-9.2248
▁Catholic	-9.22571
▁books	-9.22647
ial	-9.22657
▁Day	-9.22684
▁base	-9.22996
▁Hill	-9.23008
ating	-9.23011
▁1990	-9.23193
▁Republic	-9.23194
▁singer	-9.23258
tu	-9.23435
▁data	-9.23501
During	-9.23519
▁Du	-9.2357
▁active	-9.23602
▁rights	-9.23621
tor	-9.23708
▁regular	-9.23825
▁2011,	-9.2388
▁Or	-9.24096
ac	-9.24114
▁hit	-9.24136
▁health	-9.24159
20	-9.24203
▁see	-9.24213
50	-9.24254
day	-9.24288
▁Ta	-9.24418
▁Pe	-9.24441
▁river	-9.24779
han	-9.24784
▁week	-9.24884
▁Green	-9.24957
▁action	-9.24982
▁Some	-9.25064
▁outside	-9.25121
▁runs	-9.25165
ci	-9.25257
▁schools	-9.25398
▁real	-9.25596
▁ended	-9.25774
▁come	-9.2592
▁individual	-9.25941
▁2019	-9.26025
▁Spanish	-9.2609
based	-9.26127
▁network	-9.26129
▁defeated	-9.26142
▁29	-9.26202
▁brought	-9.26205
▁lower	-9.26217
▁rather	-9.26257
She	-9.26327
▁Festival	-9.26359
▁en	-9.26397
▁Da	-9.26837
▁[	-9.26987
chi	-9.26996
ford	-9.27001
▁interest	-9.27004
op	-9.27039
ward	-9.27213
▁rest	-9.27297
▁plant	-9.27453
▁met	-9.27468
▁matches	-9.27492
▁route	-9.27501
▁2016,	-9.27518
ven	-9.27521
ex	-9.27539
19	-9.27653
▁instead	-9.27748
wood	-9.27795
▁industry	-9.27853
▁spent	-9.27857
▁2000	-9.27884
▁Best	-9.27901
▁whose	-9.27949
▁senior	-9.27955
▁rock	-9.28011
▁taking	-9.28143
▁average	-9.28231
▁market	-9.28243
▁Michael	-9.2831
á	-9.28325
▁access	-9.28387
▁living	-9.284
well	-9.28428
▁length	-9.28512
▁child	-9.2876
There	-9.28771
For	-9.28786
▁beginning	-9.2885
▁Lu	-9.28895
▁usually	-9.28917
gi	-9.28945
ng	-9.29012
sk	-9.29132
▁collection	-9.29178
▁studied	-9.29268
▁We	-9.29308
▁love	-9.29318
▁50	-9.29454
▁Grand	-9.29575
▁b	-9.29645
▁person	-9.29699
▁movement	-9.297
▁award	-9.29725
▁opening	-9.29737
▁Great	-9.29813
▁Government	-9.29849
▁summer	-9.29974
▁towards	-9.30135
▁almost	-9.30186
▁aircraft	-9.30284
ful	-9.30379
▁2012,	-9.30396
▁ran	-9.30548
▁centre	-9.30703
▁states	-9.30725
ell	-9.30742
▁force	-9.30784
ts	-9.30889
▁seat	-9.30907
▁plan	-9.30989
▁primary	-9.31008
qui	-9.31127
-19	-9.31159
▁Zealand	-9.31177
▁studies	-9.31293
▁southern	-9.31314
▁type	-9.31404
▁score	-9.31573
▁Kingdom	-9.31598
lan	-9.31625
▁magazine	-9.31635
▁leader	-9.31718
hi	-9.31739
▁Peter	-9.31773
fe	-9.31801
▁park	-9.31809
▁changed	-9.31844
▁possible	-9.32002
▁far	-9.32053
▁plays	-9.32063
▁White	-9.32146
▁buildings	-9.32201
▁culture	-9.32204
▁soon	-9.32375
▁films	-9.32458
▁Los	-9.32577
▁create	-9.3271
▁Law	-9.3286
▁shot	-9.3288
▁Bi	-9.32908
▁owned	-9.32918
St	-9.33032
▁female	-9.33181
▁2010,	-9.33279
of	-9.33343
▁entered	-9.33365
▁selected	-9.33419
▁launched	-9.33637
▁Per	-9.3423
▁Ben	-9.34248
▁wide	-9.34351
▁Mary	-9.34375
▁Arts	-9.3452
▁Province	-9.34665
▁ever	-9.34677
▁Henry	-9.34761
▁unit	-9.34784
▁tour	-9.34834
ker	-9.3492
▁manager	-9.35015
▁Saint	-9.35047
▁competed	-9.35123
▁Soviet	-9.35213
▁significant	-9.35254
▁appearance	-9.35264
▁allowed	-9.35374
jo	-9.35406
ach	-9.35455
▁Board	-9.35547
▁find	-9.35554
▁2005	-9.35562
ino	-9.35564
▁1950	-9.35795
▁Angeles	-9.36028
▁Smith	-9.36105
▁course	-9.36143
▁money	-9.36146
▁Pa	-9.36156
▁genus	-9.36192
▁independent	-9.36243
▁property	-9.36254
▁31	-9.36269
▁Ireland	-9.36298
ud	-9.36348
▁Do	-9.364
▁Women	-9.36467
▁according	-9.36473
▁past	-9.36685
ier	-9.36771
▁Texas	-9.36826
▁commercial	-9.36846
▁Ja	-9.36884
du	-9.36955
▁highest	-9.37005
oc	-9.37033
▁northern	-9.3705
▁cost	-9.37087
▁little	-9.3713
▁itself	-9.37248
ft	-9.37371
▁date	-9.37403
▁2019,	-9.37405
▁2004	-9.37798
▁companies	-9.37887
▁Gu	-9.3792
▁40	-9.37937
▁whom	-9.37971
▁woman	-9.37991
▁gold	-9.38042
▁decision	-9.38064
▁2017	-9.381
▁Har	-9.38196
▁issues	-9.38326
▁writer	-9.38413
▁families	-9.38419
▁Y	-9.38434
▁Records	-9.38469
▁closed	-9.38636
▁future	-9.38689
▁Bank	-9.38708
▁army	-9.38831
▁victory	-9.38871
val	-9.38937
▁required	-9.38985
mar	-9.39129
ot	-9.39131
▁2009,	-9.39147
▁noted	-9.39162
che	-9.39178
▁running	-9.39329
▁operations	-9.39603
▁traditional	-9.39684
▁Force	-9.39706
ap	-9.39754
▁But	-9.3976
▁regional	-9.39811
▁staff	-9.4009
▁additional	-9.40101
ab	-9.40105
▁Championships	-9.40207
▁strong	-9.40303
▁cast	-9.40304
▁food	-9.40373
▁especially	-9.4043
▁fact	-9.40445
house	-9.40471
▁deal	-9.40479
▁retired	-9.40531
▁science	-9.40573
▁practice	-9.40788
ney	-9.40796
▁Te	-9.40881
fer	-9.40996
▁loss	-9.41121
▁earlier	-9.41197
▁island	-9.41286
▁becoming	-9.41302
▁student	-9.41325
▁self	-9.41465
▁Mexico	-9.41494
tal	-9.41517
▁activities	-9.41685
▁2017,	-9.41758
▁thought	-9.41841
▁related	-9.41846
▁location	-9.42011
▁nine	-9.42029
all	-9.42045
▁Italy	-9.42168
▁Although	-9.42204
▁move	-9.42227
ow	-9.42389
▁higher	-9.42424
▁lived	-9.4244
▁Ni	-9.4251
▁need	-9.42585
▁2018	-9.42599
▁numerous	-9.43244
▁Richard	-9.43272
▁lies	-9.43335
▁edition	-9.43523
▁operated	-9.43524
▁Director	-9.43596
▁Summer	-9.4368
▁Parliament	-9.43691
▁trade	-9.43705
▁Brown	-9.43768
▁better	-9.4377
▁natural	-9.43789
▁v	-9.43912
▁artists	-9.44007
▁championship	-9.4402
▁professor	-9.44045
▁Pan	-9.44059
▁Russia	-9.44062
▁Sea	-9.44125
ure	-9.44139
▁inter	-9.44145
▁broadcast	-9.44179
▁Super	-9.44192
▁already	-9.44206
▁bar	-9.44266
▁Chicago	-9.44298
▁engine	-9.44357
Ma	-9.44372
▁medal	-9.444
ph	-9.44511
▁red	-9.44561
▁Year	-9.44569
▁Mi	-9.44649
▁feature	-9.44715
▁management	-9.44763
▁Awards	-9.44767
▁fight	-9.44837
▁parts	-9.44837
pur	-9.4494
▁results	-9.45054
▁subject	-9.45214
je	-9.4522
▁initially	-9.45251
▁report	-9.4529
▁command	-9.45403
berg	-9.45445
▁battle	-9.4546
bu	-9.45468
▁material	-9.45487
▁Am	-9.45566
▁Chi	-9.45688
▁Ti	-9.45744
▁Virginia	-9.45897
▁size	-9.45917
ik	-9.4592
▁contains	-9.45934
▁personal	-9.46077
▁firm	-9.46093
▁means	-9.46112
mon	-9.4617
▁label	-9.46174
ize	-9.46194
▁systems	-9.46224
▁thus	-9.46261
▁standard	-9.46271
ius	-9.46301
▁officer	-9.46367
▁Olympics	-9.46389
ring	-9.46422
▁2018,	-9.46485
▁earned	-9.4652
▁musical	-9.4654
▁Sir	-9.46562
led	-9.46632
▁Ga	-9.46639
▁surface	-9.46675
▁Second	-9.46723
gan	-9.46884
▁cover	-9.47032
▁Other	-9.47063
▁annual	-9.47179
▁economic	-9.47192
▁got	-9.47223
▁serving	-9.47254
▁Navy	-9.47343
▁2014.	-9.47454
References	-9.47462
▁response	-9.47494
▁chief	-9.47521
▁going	-9.47523
ative	-9.47563
▁supported	-9.47582
▁raised	-9.47603
kin	-9.47634
▁Commission	-9.47811
▁increased	-9.48004
▁complete	-9.48024
▁minutes	-9.48039
▁medical	-9.48052
▁generally	-9.4807
▁Since	-9.48135
ities	-9.48194
▁forced	-9.48256
▁0	-9.48271
▁census	-9.48301
▁issue	-9.48311
▁goals	-9.48318
▁Games	-9.48324
▁entire	-9.48496
▁legal	-9.48537
▁below	-9.48636
for	-9.48729
▁Ver	-9.48737
▁associated	-9.4874
▁relationship	-9.48855
10	-9.48876
▁majority	-9.48895
▁Congress	-9.48919
om	-9.49091
Ra	-9.49203
gar	-9.49268
cha	-9.49357
fi	-9.49393
▁caused	-9.49411
▁give	-9.49445
▁my	-9.49556
▁Greek	-9.49596
▁meeting	-9.49608
▁room	-9.49641
▁politician	-9.49649
▁Martin	-9.49726
▁presented	-9.49759
▁subsequently	-9.49885
red	-9.49993
ium	-9.50052
▁prior	-9.50083
▁graduated	-9.50098
back	-9.50228
▁Line	-9.50347
▁passed	-9.50376
▁My	-9.50377
Personal	-9.50387
▁Ru	-9.50402
▁Wales	-9.50444
▁hard	-9.50449
ide	-9.50546
▁2008,	-9.50591
▁complex	-9.50684
ev	-9.50713
▁western	-9.50835
▁review	-9.50852
▁Florida	-9.50861
▁Service	-9.51024
▁Ba	-9.51071
▁claimed	-9.51085
▁Sun	-9.51106
▁2020	-9.51171
▁Sch	-9.51202
vin	-9.51279
▁Chief	-9.51335
▁evidence	-9.51401
east	-9.51445
▁helped	-9.51512
"),	-9.5152
▁hours	-9.51596
▁Two	-9.51672
American	-9.51755
▁Men	-9.51831
▁Mc	-9.51854
war	-9.51928
ten	-9.51991
▁Battle	-9.52005
▁turn	-9.5208
▁units	-9.52144
▁sports	-9.5231
▁Railway	-9.52459
New	-9.52505
▁Assembly	-9.52534
ical	-9.52566
▁marriage	-9.52584
▁Ri	-9.52619
▁Fe	-9.52625
Biography	-9.52723
▁changes	-9.52763
▁sometimes	-9.5293
▁composed	-9.53042
To	-9.53108
▁Conference	-9.53152
All	-9.53282
▁federal	-9.53361
▁overall	-9.5344
▁promoted	-9.53499
ee	-9.53577
▁parents	-9.53594
▁2003	-9.53652
▁Mark	-9.5374
▁limited	-9.5388
▁Sal	-9.53884
ari	-9.53913
ise	-9.53974
▁failed	-9.54031
ec	-9.54095
▁middle	-9.5419
▁Research	-9.54357
ata	-9.54379
▁Vi	-9.54407
▁sister	-9.54463
don	-9.54639
▁financial	-9.54692
▁Irish	-9.54723
▁Southern	-9.5473
▁leaving	-9.54756
▁Team	-9.54764
▁famous	-9.54951
▁sound	-9.54957
▁shown	-9.54961
▁characters	-9.55153
▁hospital	-9.55192
▁Northern	-9.55262
▁particular	-9.55331
Q	-9.55358
bar	-9.55425
head	-9.55474
▁key	-9.55482
yl	-9.55512
▁too	-9.55567
▁vote	-9.55601
▁acquired	-9.55618
▁floor	-9.55656
▁Jo	-9.55723
▁mostly	-9.5582
▁Lee	-9.5592
▁multiple	-9.56034
▁Town	-9.56169
ator	-9.5628
q	-9.56326
▁university	-9.56419
▁Spain	-9.56646
From	-9.56647
▁friend	-9.56782
▁remains	-9.56786
▁Later	-9.56875
▁operation	-9.5693
▁native	-9.56974
▁particularly	-9.57063
▁1940	-9.57086
▁Cha	-9.57237
▁Sam	-9.57249
tion	-9.57451
▁month	-9.57454
▁Science	-9.57484
ix	-9.57508
▁status	-9.57712
Ro	-9.57757
ries	-9.57845
▁lines	-9.57898
ai	-9.58017
ists	-9.58028
60	-9.58037
▁consists	-9.58056
▁remaining	-9.58069
▁editor	-9.58076
]]	-9.58127
▁weeks	-9.58127
▁offered	-9.58314
ice	-9.58362
▁longer	-9.58378
od	-9.58425
▁care	-9.58437
▁2,	-9.5847
▁Mac	-9.5855
▁2002	-9.58687
▁1930	-9.58728
▁Star	-9.58783
▁participated	-9.58829
▁border	-9.5887
í	-9.5887
▁experience	-9.58875
40	-9.58895
▁programs	-9.58947
▁Tom	-9.58961
▁face	-9.59108
▁Times	-9.59142
▁f	-9.59439
▁test	-9.59448
▁Tour	-9.59477
▁Ke	-9.59517
▁2020,	-9.59613
▁multi	-9.59714
▁carried	-9.59782
▁effect	-9.59797
▁recording	-9.59832
▁chart	-9.5984
▁Democratic	-9.59856
▁Pre	-9.59858
tro	-9.59865
▁Lord	-9.59883
▁policy	-9.59895
▁Old	-9.59919
ini	-9.59926
▁producer	-9.6001
▁Education	-9.60107
▁starting	-9.60121
▁terms	-9.6016
ita	-9.60168
ther	-9.60185
▁movie	-9.60216
wi	-9.6025
▁source	-9.60301
▁Joseph	-9.60342
Mo	-9.60404
nes	-9.60466
▁themselves	-9.60503
fa	-9.6054
▁host	-9.6054
lic	-9.60547
▁separate	-9.60569
▁Sha	-9.60753
uk	-9.60755
low	-9.60821
▁larger	-9.60878
▁increase	-9.60881
▁Valley	-9.60973
▁Pi	-9.60985
▁2001	-9.61024
▁You	-9.61072
▁Carolina	-9.61163
▁attempt	-9.61229
▁speed	-9.61434
Ha	-9.61441
shi	-9.61493
▁fifth	-9.61502
25	-9.61514
▁appearances	-9.61607
▁referred	-9.61693
▁Bill	-9.61795
▁website	-9.6186
▁believed	-9.61904
pi	-9.61944
▁basketball	-9.61956
Con	-9.61982
▁transferred	-9.61999
port	-9.62009
▁technology	-9.62013
▁candidate	-9.62094
▁moth	-9.62278
▁religious	-9.62365
▁stone	-9.62396
▁latter	-9.62479
▁rate	-9.62531
ou	-9.62535
▁Foundation	-9.62619
▁foreign	-9.62633
▁positive	-9.62656
ku	-9.62886
Co	-9.62949
▁certain	-9.62952
▁takes	-9.63177
ü	-9.63279
▁join	-9.63285
▁Public	-9.63318
▁Th	-9.63394
▁mainly	-9.6342
ick	-9.63422
▁proposed	-9.63466
▁God	-9.63467
His	-9.63535
▁civil	-9.6354
▁call	-9.63559
ram	-9.63599
Al	-9.63615
▁direct	-9.63636
▁Ad	-9.63679
▁done	-9.63708
▁train	-9.63722
sky	-9.63895
▁quarter	-9.63939
▁Most	-9.64061
▁society	-9.64159
▁Wood	-9.6417
▁word	-9.64205
▁drama	-9.64222
yn	-9.64296
▁Jewish	-9.64331
zi	-9.64336
▁husband	-9.64339
ā	-9.6434
▁extended	-9.6437
▁Mu	-9.64479
town	-9.64537
▁CD	-9.6455
▁variety	-9.64557
▁king	-9.64599
▁saying	-9.64606
▁leave	-9.64625
▁serve	-9.64665
▁despite	-9.6468
▁Za	-9.64805
▁managed	-9.64871
▁energy	-9.64922
▁act	-9.6499
now	-9.65119
▁Louis	-9.65132
▁today	-9.6517
▁allow	-9.65201
▁That	-9.6525
▁cases	-9.6526
ay	-9.65295
si	-9.65353
▁1920	-9.65425
▁Port	-9.65452
▁draw	-9.65494
ola	-9.65518
▁constructed	-9.65562
▁master	-9.65563
▁council	-9.65573
▁actor	-9.65612
▁Big	-9.65638
ett	-9.65668
▁meaning	-9.65723
yard	-9.65746
▁2015.	-9.65827
▁cut	-9.65886
▁bridge	-9.659
▁finally	-9.65903
▁account	-9.65979
▁municipality	-9.66003
▁turned	-9.66071
▁always	-9.66162
▁cross	-9.6627
▁mm	-9.66276
▁Dutch	-9.66375
▁prominent	-9.66388
▁elections	-9.66389
▁Gi	-9.66397
▁Land	-9.66402
▁responsible	-9.66615
▁star	-9.66619
har	-9.66694
▁block	-9.66702
▁youth	-9.66752
▁covered	-9.66781
▁estate	-9.66908
▁influence	-9.6694
▁rural	-9.66965
▁lack	-9.67015
▁Its	-9.67218
era	-9.67258
▁pay	-9.67269
▁provides	-9.67382
car	-9.6742
▁dance	-9.67426
▁male	-9.67434
tz	-9.67457
▁People	-9.67478
▁arrived	-9.67621
▁newspaper	-9.67751
▁En	-9.67765
▁troops	-9.67808
▁Fa	-9.67868
▁couple	-9.67881
Sa	-9.67888
ez	-9.67903
▁historical	-9.68048
▁committee	-9.68075
▁executive	-9.68091
▁crew	-9.68127
gu	-9.68128
mb	-9.68201
▁recent	-9.68205
▁Their	-9.68211
▁Tu	-9.68249
▁footballer	-9.68263
▁Iran	-9.68286
▁Under	-9.68305
ara	-9.68323
▁semi	-9.68357
▁2011.	-9.68402
▁oil	-9.68509
▁Pacific	-9.68633
▁fall	-9.6869
class	-9.68699
▁asked	-9.68842
if	-9.6898
ep	-9.68989
▁double	-9.6902
▁1999	-9.69036
▁Queen	-9.69121
▁Tri	-9.69139
▁content	-9.69166
▁issued	-9.69189
").	-9.69193
▁eastern	-9.69217
▁direction	-9.69344
▁Republican	-9.69353
▁Centre	-9.69363
eh	-9.6937
▁specific	-9.6946
▁told	-9.69482
▁Dan	-9.69525
▁brand	-9.69542
▁plans	-9.69542
ations	-9.69603
▁nearly	-9.69693
▁$	-9.69694
▁cultural	-9.69711
▁conditions	-9.69711
▁Pennsylvania	-9.69739
▁academic	-9.69745
▁Mor	-9.6984
▁enough	-9.69934
▁2007,	-9.70078
ren	-9.70084
When	-9.70085
van	-9.70101
▁winner	-9.70115
▁Empire	-9.70155
▁department	-9.70173
▁Rock	-9.70214
▁museum	-9.70226
ura	-9.70282
ef	-9.70288
▁county	-9.70345
mp	-9.70414
▁ball	-9.70448
▁Gold	-9.7045
▁union	-9.70548
ye	-9.70578
▁agreement	-9.70586
▁our	-9.70588
▁Eastern	-9.70613
▁Gar	-9.70659
▁Van	-9.70668
▁renamed	-9.70695
ub	-9.70821
pp	-9.7088
des	-9.70952
can	-9.71
▁Edward	-9.71049
▁might	-9.71068
▁Ju	-9.71101
▁projects	-9.71184
ski	-9.7119
▁nearby	-9.71226
▁Frank	-9.71228
▁voice	-9.71324
▁scene	-9.71332
▁wanted	-9.7134
▁paper	-9.71368
▁Theatre	-9.71398
▁build	-9.71449
▁Britain	-9.7146
▁Health	-9.71495
let	-9.71638
▁whole	-9.71676
▁Historic	-9.71698
like	-9.71738
▁problems	-9.71771
▁cause	-9.71835
▁awards	-9.71895
▁text	-9.71942
▁appears	-9.7201
▁historic	-9.72019
sion	-9.72128
▁press	-9.7216
▁color	-9.72256
▁tracks	-9.72295
▁Secretary	-9.72307
▁Radio	-9.72326
▁nature	-9.72378
▁products	-9.72397
▁2013.	-9.72399
idae	-9.72443
▁assistant	-9.72645
▁treatment	-9.72667
▁defeat	-9.72716
▁Don	-9.72749
▁Fort	-9.72814
▁bank	-9.72862
▁discovered	-9.72954
▁Coast	-9.72973
pt	-9.73058
▁alongside	-9.73077
▁stars	-9.73091
▁Par	-9.73122
▁coast	-9.73334
▁Bre	-9.73347
▁idea	-9.73355
▁primarily	-9.73421
▁computer	-9.73463
▁theory	-9.73613
▁Governor	-9.73632
▁likely	-9.73662
▁Columbia	-9.73769
▁pass	-9.73772
▁Che	-9.73824
▁uses	-9.73862
▁Pat	-9.73952
mann	-9.73974
▁keep	-9.73978
ile	-9.73993
▁revealed	-9.74011
▁directly	-9.74014
▁channel	-9.74019
▁Un	-9.74097
▁Series	-9.74179
▁Hospital	-9.74181
000	-9.74188
ised	-9.74275
▁stations	-9.74289
▁And	-9.74326
row	-9.74423
▁Avenue	-9.7443
▁Voivodeship	-9.74441
▁capacity	-9.74483
▁friends	-9.74522
▁Scotland	-9.74522
▁Love	-9.74592
▁lives	-9.74606
ification	-9.74631
▁continue	-9.74684
▁Senate	-9.74718
▁Boston	-9.7478
▁Creek	-9.74909
▁metal	-9.74918
▁III	-9.74924
▁houses	-9.74928
▁Asia	-9.74941
light	-9.74952
end	-9.74953
▁notable	-9.74965
▁forms	-9.75066
▁Latin	-9.75097
▁focus	-9.75118
According	-9.75124
▁grew	-9.75135
▁initial	-9.75188
▁200	-9.75342
18	-9.75364
▁view	-9.7539
▁cities	-9.75475
▁Ya	-9.7551
▁Civil	-9.7551
▁ships	-9.75517
▁break	-9.75519
▁painting	-9.75544
▁era	-9.75546
▁Michigan	-9.75558
▁Young	-9.75614
▁impact	-9.75658
more	-9.75685
▁Si	-9.75692
ible	-9.75792
▁Kong	-9.7583
▁distance	-9.75833
ena	-9.75853
▁branch	-9.75886
▁cell	-9.75906
▁conducted	-9.75914
▁fellow	-9.75971
ug	-9.75987
▁parish	-9.75987
▁camp	-9.76015
▁Long	-9.76056
hr	-9.76088
▁Bur	-9.76118
▁Prince	-9.76207
▁Can	-9.7644
TV	-9.76498
▁heavy	-9.7652
cher	-9.76521
tri	-9.76533
▁Both	-9.76546
▁captain	-9.76547
▁yards	-9.76597
-1	-9.7664
▁Register	-9.76722
▁gas	-9.76733
▁Open	-9.76774
ions	-9.76844
cy	-9.76852
▁mission	-9.76882
▁Fi	-9.76981
▁g	-9.77012
▁officially	-9.77046
▁elements	-9.77117
ok	-9.77145
00	-9.77161
▁1998	-9.77184
▁FC	-9.77262
ual	-9.77333
▁Middle	-9.77426
▁whether	-9.77468
▁job	-9.77492
our	-9.7754
▁murder	-9.77554
▁dedicated	-9.77592
▁Francisco	-9.77613
▁travel	-9.77648
ological	-9.77675
stone	-9.77768
▁format	-9.77887
▁Prime	-9.77937
▁follows	-9.78106
▁planned	-9.78132
ea	-9.78148
▁workers	-9.78178
istic	-9.78207
king	-9.78224
▁Corps	-9.7829
▁online	-9.78331
▁Hong	-9.78378
pro	-9.78385
▁Israel	-9.78386
▁finish	-9.78424
her	-9.78493
▁minor	-9.78509
cho	-9.78548
▁intended	-9.78549
▁silver	-9.78558
▁know	-9.78602
▁forward	-9.78652
▁province	-9.78705
▁stories	-9.78707
▁heart	-9.78714
▁champion	-9.78744
ani	-9.78755
ding	-9.78764
▁formation	-9.78819
tre	-9.78848
tter	-9.78925
ping	-9.78927
▁Jones	-9.78949
80	-9.78984
▁Olympic	-9.78988
▁Ch	-9.78991
▁tax	-9.79067
▁poor	-9.79085
▁Ohio	-9.79093
▁letter	-9.79108
▁appear	-9.79126
▁produce	-9.79134
▁Following	-9.79218
▁function	-9.79227
▁Many	-9.79233
▁Office	-9.79322
▁Wa	-9.79326
▁removed	-9.79332
▁settlement	-9.79466
▁Cross	-9.79484
▁Mr	-9.79502
▁Polish	-9.79549
▁tower	-9.79591
▁ordered	-9.79607
▁wing	-9.79612
▁Gmina	-9.79655
▁soldiers	-9.79656
und	-9.79723
my	-9.79857
▁damage	-9.79924
▁Professor	-9.79981
▁If	-9.80034
Background	-9.8008
dic	-9.8009
▁Major	-9.80103
▁stop	-9.80122
iz	-9.80133
▁3,	-9.80222
70	-9.80245
▁records	-9.80247
▁purchased	-9.80271
▁dark	-9.80281
ric	-9.80321
▁table	-9.8034
▁attention	-9.8047
▁value	-9.80677
wing	-9.80763
▁1997	-9.80774
▁2010.	-9.80808
▁develop	-9.80869
ris	-9.80935
▁Development	-9.81013
▁blue	-9.81056
Na	-9.81058
ath	-9.81112
▁temple	-9.81125
▁here	-9.81132
▁bill	-9.81178
▁article	-9.81186
▁titled	-9.81199
▁clear	-9.8121
▁du	-9.81249
▁moving	-9.81275
ä	-9.81311
▁Kar	-9.8133
▁Ram	-9.81341
▁bi	-9.81431
By	-9.81453
▁Col	-9.81464
west	-9.81494
▁Cor	-9.81566
▁2006,	-9.8157
ving	-9.81583
▁reviews	-9.81599
▁60	-9.81618
sch	-9.81619
▁basis	-9.81632
ó	-9.81686
Life	-9.81688
▁seasons	-9.81781
aw	-9.81932
▁upper	-9.81967
▁yet	-9.81982
▁efforts	-9.81984
▁conference	-9.82067
over	-9.82096
ned	-9.82097
▁divided	-9.82185
▁security	-9.82204
▁inside	-9.82236
yan	-9.82426
par	-9.82466
▁farm	-9.82469
▁pressure	-9.82475
▁Scottish	-9.82478
▁potential	-9.82492
▁meet	-9.82497
▁read	-9.82507
ery	-9.82534
▁conflict	-9.82601
Pa	-9.8267
▁quickly	-9.82702
▁environment	-9.82775
▁featuring	-9.82829
cre	-9.82851
No	-9.82856
Me	-9.82876
▁digital	-9.82936
▁charge	-9.82952
▁Order	-9.82994
▁2009.	-9.83102
ever	-9.83206
▁levels	-9.83233
tur	-9.83239
▁prison	-9.83273
▁facilities	-9.8333
ture	-9.8355
▁officers	-9.83563
▁immediately	-9.83575
law	-9.83595
▁interview	-9.83614
▁assigned	-9.83734
▁makes	-9.8385
▁highly	-9.8387
▁administration	-9.84116
▁respectively	-9.84137
Ba	-9.84142
▁trial	-9.84184
▁Ge	-9.8424
▁approach	-9.8425
gg	-9.84256
▁growth	-9.84294
ens	-9.84397
▁Station	-9.84402
="	-9.84431
kar	-9.84478
▁teaching	-9.84492
▁Berlin	-9.84713
ves	-9.84825
▁drive	-9.84854
ane	-9.84861
▁Show	-9.84865
▁organized	-9.84884
Be	-9.84893
ff	-9.84955
so	-9.84957
▁older	-9.84969
▁Jack	-9.85012
▁Ku	-9.85035
▁amount	-9.85125
▁Ministry	-9.85153
▁super	-9.85204
▁1948	-9.85213
▁rule	-9.85218
▁Rome	-9.85293
▁—	-9.8536
▁Sydney	-9.85378
▁activity	-9.85433
wan	-9.85516
▁Cu	-9.85524
ju	-9.85552
▁captured	-9.85744
▁platform	-9.8576
▁smaller	-9.85767
We	-9.85821
▁Johnson	-9.85855
▁individuals	-9.85912
▁declared	-9.85915
23	-9.85921
▁t	-9.85933
cu	-9.85955
▁Wi	-9.85987
▁giving	-9.86087
ula	-9.86113
▁store	-9.86116
▁1996	-9.86118
▁needed	-9.86123
15	-9.86136
▁van	-9.86303
nie	-9.86399
▁Ki	-9.86437
▁reach	-9.86543
▁gained	-9.86781
Plot	-9.86817
▁residents	-9.86846
▁agreed	-9.86862
▁hosted	-9.86883
▁ice	-9.86912
ella	-9.86949
ore	-9.8698
▁percent	-9.86996
▁architect	-9.87077
▁portion	-9.87086
▁mis	-9.87088
▁scoring	-9.87152
▁BBC	-9.87182
▁solo	-9.87232
tel	-9.87274
▁quality	-9.87278
);	-9.87308
▁physical	-9.87407
▁Scott	-9.87409
▁teacher	-9.87469
ious	-9.87576
▁kind	-9.87589
top	-9.87603
_	-9.87688
š	-9.87692
▁Federal	-9.87707
▁$1	-9.87708
▁nominated	-9.87734
▁suffered	-9.87778
▁hold	-9.87786
▁leaves	-9.87799
ria	-9.87832
▁mixed	-9.8786
▁wood	-9.87936
▁2005,	-9.87975
mor	-9.87984
▁street	-9.87999
▁destroyed	-9.88022
with	-9.88037
cul	-9.88128
Pro	-9.88191
▁minister	-9.88205
▁2016.	-9.88244
tt	-9.88245
▁risk	-9.88266
▁Q	-9.88272
▁Home	-9.88286
▁Bishop	-9.88347
90	-9.88397
▁2012.	-9.88481
▁acting	-9.8854
▁method	-9.88543
illa	-9.88557
▁squad	-9.8859
▁Bra	-9.88603
act	-9.88621
mal	-9.88672
dar	-9.88686
▁Jr	-9.88712
With	-9.88725
▁names	-9.88788
▁em	-9.8881
▁1956	-9.8883
▁Williams	-9.88849
▁Blue	-9.88862
▁Justice	-9.8889
▁Dar	-9.88923
▁Ab	-9.88953
Car	-9.88971
▁perform	-9.8901
▁4,	-9.89045
▁commander	-9.89065
tin	-9.89069
ada	-9.89146
▁product	-9.89152
11	-9.89161
▁compared	-9.89237
▁fell	-9.89295
▁gun	-9.893
▁spring	-9.89304
▁figure	-9.89321
▁wall	-9.89443
▁Ph	-9.89452
tle	-9.89457
rum	-9.89503
▁Massachusetts	-9.89505
Bo	-9.89547
▁Bu	-9.89552
▁taught	-9.89552
▁effects	-9.8958
▁Corporation	-9.89594
▁mountain	-9.89664
▁Post	-9.89781
▁share	-9.89845
og	-9.89866
▁news	-9.89883
▁governor	-9.89919
bal	-9.89936
▁concept	-9.89972
use	-9.8999
ability	-9.90018
▁estimated	-9.9002
▁Bridge	-9.90027
▁words	-9.90031
eg	-9.90082
▁coming	-9.90118
▁roles	-9.90139
▁Hu	-9.90164
▁comes	-9.9018
▁operating	-9.90216
central	-9.90222
tha	-9.90275
▁leaders	-9.90336
▁Regiment	-9.9037
▁tells	-9.90377
▁promotion	-9.90495
▁sign	-9.90509
▁Sp	-9.90515
ified	-9.90519
▁code	-9.90601
12	-9.90639
▁i	-9.90652
▁split	-9.90666
▁Top	-9.90683
▁owner	-9.90711
▁dead	-9.90761
Description	-9.90834
▁equipment	-9.90856
▁rules	-9.90911
set	-9.90938
▁exchange	-9.90986
▁commonly	-9.91023
▁creation	-9.91039
▁/	-9.9107
lar	-9.91094
▁Victoria	-9.91222
ors	-9.91244
▁accepted	-9.91266
▁recently	-9.91288
▁Earth	-9.91428
ped	-9.91441
▁leadership	-9.91451
ight	-9.91451
▁therefore	-9.91475
▁ability	-9.91495
sha	-9.91534
sta	-9.91589
▁offers	-9.91589
▁Jean	-9.91617
▁Georgia	-9.91619
▁widely	-9.91746
▁hotel	-9.91794
▁expanded	-9.91802
▁Jersey	-9.91867
▁ma	-9.91886
nu	-9.91939
▁probably	-9.91959
▁Despite	-9.91996
Other	-9.92005
▁votes	-9.92024
24	-9.92024
▁Han	-9.9206
▁Swedish	-9.92079
▁Far	-9.9209
▁occurred	-9.92177
▁combined	-9.92214
▁adopted	-9.92367
▁losing	-9.92377
▁confirmed	-9.92453
John	-9.92514
▁Min	-9.92541
▁ancient	-9.92561
▁1992	-9.92561
▁k	-9.92597
▁injury	-9.92649
Mar	-9.92726
bel	-9.92748
▁reason	-9.92767
▁surrounding	-9.92823
su	-9.92825
▁Toronto	-9.92851
▁pop	-9.92851
Man	-9.92866
▁Water	-9.9291
▁distribution	-9.92936
One	-9.92943
uff	-9.92952
▁Illinois	-9.93012
ette	-9.93014
cer	-9.93017
form	-9.93028
▁resulted	-9.93036
▁Yu	-9.93191
▁birth	-9.93241
▁felt	-9.93284
▁1947	-9.93323
▁Korean	-9.9336
art	-9.93373
air	-9.93458
tain	-9.93509
▁remain	-9.93514
▁recognized	-9.93592
▁largely	-9.93632
▁purpose	-9.93638
▁expected	-9.93665
ct	-9.93731
▁association	-9.93759
▁Ve	-9.93778
▁Korea	-9.9379
▁Also	-9.93795
▁port	-9.93879
▁Field	-9.93892
fo	-9.93912
▁Ali	-9.93947
dra	-9.93954
▁parties	-9.94015
▁hall	-9.94026
▁History	-9.94027
▁1959	-9.94063
▁Library	-9.94086
▁Asian	-9.94104
▁presence	-9.94128
▁mass	-9.94128
▁obtained	-9.94143
▁roof	-9.94152
ag	-9.94195
▁cars	-9.94205
▁twenty	-9.94216
▁actress	-9.94225
▁Supreme	-9.94254
▁guitar	-9.94302
▁principal	-9.94331
▁newly	-9.94584
▁buried	-9.94702
▁difficult	-9.94768
▁origin	-9.94778
▁twice	-9.94855
ade	-9.95042
▁qualified	-9.9517
▁serves	-9.95176
ments	-9.95193
▁Er	-9.95205
▁billion	-9.9525
▁Life	-9.95297
▁Over	-9.95344
▁condition	-9.9536
▁effort	-9.95416
▁1958	-9.95421
▁transfer	-9.95431
ica	-9.95457
▁search	-9.95557
▁sector	-9.95574
ö	-9.95581
▁loan	-9.95595
▁seats	-9.95646
win	-9.9568
▁analysis	-9.957
xi	-9.95765
ray	-9.95784
lon	-9.95824
27	-9.95856
ei	-9.95884
▁visit	-9.95894
▁1995	-9.95915
▁sales	-9.95974
▁Inc	-9.95988
▁theatre	-9.96049
Po	-9.96074
▁unique	-9.96081
▁flight	-9.9612
▁5,	-9.96171
▁investigation	-9.96251
▁industrial	-9.96305
▁ranked	-9.96339
▁transport	-9.96344
▁comedy	-9.96397
▁Of	-9.96432
▁green	-9.96503
▁Joe	-9.96569
▁chairman	-9.96571
▁miles	-9.96571
▁founder	-9.96605
vis	-9.96632
▁problem	-9.96681
▁identified	-9.96701
▁stand	-9.96718
▁urban	-9.96745
▁lot	-9.96758
▁critical	-9.96765
Li	-9.96804
▁communities	-9.96845
26	-9.96848
▁phase	-9.96866
work	-9.96875
▁performances	-9.96883
az	-9.96902
▁sources	-9.96952
▁Stadium	-9.96977
▁aired	-9.96986
ates	-9.97003
▁Press	-9.97027
▁situated	-9.97061
▁32	-9.97115
▁1994	-9.97117
▁sp	-9.97141
Ka	-9.97153
▁memory	-9.97172
▁providing	-9.97258
▁launch	-9.97346
▁compete	-9.97354
▁square	-9.97354
▁foundation	-9.97446
▁Mount	-9.97463
▁receive	-9.97488
▁1964	-9.97518
▁plants	-9.97521
▁concert	-9.97586
▁blood	-9.97587
af	-9.97618
▁contemporary	-9.97633
▁global	-9.97673
▁se	-9.97686
+	-9.97741
▁1991	-9.9776
▁literature	-9.97818
kh	-9.97842
?	-9.97851
▁Pakistan	-9.9787
▁mentioned	-9.97889
vel	-9.9791
▁=	-9.97925
▁organizations	-9.97961
▁setting	-9.97966
▁forest	-9.97991
▁incident	-9.98043
▁vi	-9.98076
vers	-9.98095
ene	-9.98103
▁1957	-9.98156
▁partner	-9.98158
▁secondary	-9.98167
ken	-9.98176
▁Pu	-9.98195
▁paid	-9.98197
▁showed	-9.98308
oon	-9.98325
tan	-9.98355
mm	-9.98379
▁35	-9.98384
El	-9.98454
▁territory	-9.98494
burg	-9.98542
▁reduced	-9.98543
not	-9.98629
▁Ban	-9.98714
▁trains	-9.98719
▁situation	-9.98722
▁Oxford	-9.98748
▁episodes	-9.98759
▁Ex	-9.98782
▁deep	-9.98837
14	-9.98841
▁1952	-9.98853
▁‘	-9.98889
▁arrested	-9.98895
▁composer	-9.98937
▁Rural	-9.98945
▁Andrew	-9.98965
▁granted	-9.98966
Since	-9.98984
▁Alexander	-9.99031
▁rise	-9.99032
bra	-9.99095
16	-9.99147
▁sc	-9.99193
▁Police	-9.99193
22	-9.99229
▁Queensland	-9.99243
ose	-9.99324
res	-9.99329
▁contact	-9.99329
▁edge	-9.99344
▁Jan	-9.99349
▁sex	-9.99392
ero	-9.99439
35	-9.99444
▁2008.	-9.99447
▁Ontario	-9.99471
▁6,	-9.9951
▁Premier	-9.99569
cker	-9.99595
ō	-9.99638
▁prevent	-9.99669
▁Ten	-9.99681
▁says	-9.99726
ps	-9.99828
▁Elizabeth	-9.99845
gue	-9.99886
▁kept	-9.99962
▁festival	-9.99965
cal	-9.99972
▁2019.	-10.0011
▁campus	-10.0013
▁1954	-10.0018
▁del	-10.0021
ib	-10.0023
tes	-10.0023
▁beat	-10.0027
▁positions	-10.003
Reception	-10.0039
▁suggested	-10.0043
which	-10.0045
▁surname	-10.0045
right	-10.0056
▁Sports	-10.0058
▁rear	-10.0064
▁Inter	-10.0065
–18	-10.0066
▁Ber	-10.0069
▁defense	-10.0074
▁types	-10.0076
▁Tra	-10.0076
cle	-10.0083
▁feet	-10.0085
Ar	-10.0086
▁nation	-10.0091
▁knowledge	-10.0092
▁fish	-10.0105
Born	-10.0106
▁think	-10.0108
▁traffic	-10.011
▁metres	-10.0117
▁library	-10.0117
▁1955	-10.0118
▁honor	-10.0119
▁disease	-10.0126
mark	-10.0127
▁sixth	-10.0131
▁1949	-10.0133
ip	-10.0134
pre	-10.0144
▁Mexican	-10.0145
▁Santa	-10.0147
▁marine	-10.0147
▁typically	-10.0148
▁Mon	-10.0152
▁Brazil	-10.0161
▁Highway	-10.0173
▁question	-10.0173
▁reference	-10.0185
▁imp	-10.0186
▁growing	-10.0188
ky	-10.019
▁Network	-10.0191
ale	-10.02
ple	-10.0203
▁corner	-10.0208
▁Vo	-10.0213
▁inspired	-10.0214
!"	-10.0215
▁facility	-10.0219
▁software	-10.022
Following	-10.0221
ala	-10.0222
▁Nations	-10.0225
▁Is	-10.0228
▁Social	-10.023
▁mo	-10.0236
ux	-10.0236
▁Media	-10.0238
▁Daniel	-10.024
▁offer	-10.0241
▁actually	-10.0244
▁Game	-10.0245
▁younger	-10.025
▁brown	-10.0251
uri	-10.0258
ase	-10.0262
▁designated	-10.0264
▁languages	-10.0265
▁resulting	-10.0267
▁(17	-10.0267
len	-10.0271
dale	-10.0273
ue	-10.0274
ese	-10.0275
▁marked	-10.0282
ano	-10.0284
▁Duke	-10.0284
▁tried	-10.0288
▁USA	-10.0293
duct	-10.0294
nt	-10.0295
uch	-10.0303
▁figures	-10.0306
ob	-10.0311
▁Netherlands	-10.0311
▁Shi	-10.0312
▁Book	-10.0312
▁existing	-10.0313
zo	-10.0314
▁Val	-10.0316
▁More	-10.0318
▁pair	-10.0326
▁authorities	-10.0326
▁joint	-10.0328
▁1966	-10.0328
Ho	-10.033
▁bronze	-10.0332
MA	-10.0337
▁chosen	-10.0345
▁goes	-10.0359
▁7,	-10.0367
▁extra	-10.0367
▁singles	-10.0369
▁clubs	-10.0371
▁achieved	-10.0372
cent	-10.0372
▁Mal	-10.0373
▁politics	-10.0379
▁true	-10.0386
▁Power	-10.0386
▁relations	-10.0391
▁cur	-10.0392
▁follow	-10.0399
▁models	-10.04
net	-10.04
▁places	-10.04
▁Islands	-10.0402
▁continues	-10.0403
▁claim	-10.0406
▁scientific	-10.041
▁1993	-10.041
▁Mer	-10.0415
▁weight	-10.0415
▁publication	-10.0416
av	-10.0416
▁opposition	-10.0422
ory	-10.0423
▁1953	-10.0424
▁starring	-10.0426
▁advanced	-10.0435
▁critics	-10.0442
▁Special	-10.0445
17	-10.0449
lam	-10.0449
▁bought	-10.045
ign	-10.0461
29	-10.0462
▁officials	-10.0467
stra	-10.0467
▁numbers	-10.0468
▁returning	-10.0471
cor	-10.0473
cing	-10.0475
▁guest	-10.0478
▁zone	-10.0486
▁headquarters	-10.0492
ich	-10.0501
28	-10.0503
▁except	-10.0503
Se	-10.0505
izing	-10.0506
cus	-10.051
▁Night	-10.0511
long	-10.0511
▁horse	-10.0515
▁Fox	-10.0519
water	-10.0521
▁Sri	-10.0522
▁...	-10.0523
board	-10.0529
▁consisted	-10.053
▁Technology	-10.0532
▁Jackson	-10.0538
75	-10.0539
▁simple	-10.054
▁Je	-10.0542
▁height	-10.0547
iya	-10.0552
pan	-10.0556
hal	-10.0558
▁applied	-10.0559
▁big	-10.0566
nce	-10.0568
▁villages	-10.0569
▁Mel	-10.0575
▁judge	-10.0581
▁spot	-10.0586
▁girl	-10.0588
▁succeeded	-10.0591
▁Bell	-10.0592
kan	-10.0592
▁NCAA	-10.0603
▁architecture	-10.0603
▁Band	-10.0611
▁connected	-10.0618
▁Castle	-10.0632
▁Bal	-10.0633
▁shell	-10.0635
Lo	-10.0639
▁Liberal	-10.0645
▁Master	-10.0647
▁fine	-10.0649
Do	-10.0653
▁fighting	-10.0654
mate	-10.0655
▁image	-10.0655
▁stay	-10.0657
▁fought	-10.0658
▁holding	-10.0665
▁lake	-10.0674
▁begin	-10.0679
▁Khan	-10.0683
▁supply	-10.0683
▁fully	-10.0684
▁rail	-10.0696
dan	-10.0697
▁£	-10.0698
▁receiving	-10.0698
▁shape	-10.0699
cur	-10.0701
▁Mad	-10.0703
bit	-10.0704
▁greater	-10.0704
▁straight	-10.0705
45	-10.0712
▁bring	-10.0713
▁1919	-10.0715
fu	-10.0724
known	-10.0724
▁begins	-10.0725
▁sa	-10.0731
▁Va	-10.0736
dis	-10.0737
▁8,	-10.074
century	-10.0743
cc	-10.0743
▁classes	-10.0747
▁regiment	-10.0749
▁Philadelphia	-10.075
▁1951	-10.0752
rie	-10.0755
▁claims	-10.0757
SA	-10.0759
bert	-10.0762
▁commissioned	-10.0764
▁avoid	-10.0767
var	-10.077
▁highway	-10.077
-2	-10.0771
▁look	-10.0779
▁von	-10.0784
▁1945	-10.0794
▁Sweden	-10.0798
5%	-10.0799
▁pick	-10.08
▁sexual	-10.0801
▁Ash	-10.0803
▁reports	-10.0804
▁ha	-10.0804
▁audience	-10.0804
▁Sta	-10.0809
▁Atlantic	-10.0817
ama	-10.0819
▁leg	-10.0826
ns	-10.0827
▁materials	-10.0827
▁poet	-10.0829
▁script	-10.0836
▁im	-10.0839
▁things	-10.0841
▁reception	-10.0841
▁becomes	-10.0845
▁Will	-10.0848
▁2004,	-10.0849
qu	-10.0851
▁entitled	-10.0855
Ta	-10.0856
▁Maria	-10.0857
▁Francis	-10.0857
▁painter	-10.0859
▁programme	-10.0864
▁entrance	-10.0864
▁creating	-10.0867
▁broke	-10.087
▁frame	-10.087
▁constituency	-10.0871
▁Airport	-10.0873
▁holds	-10.0878
▁Business	-10.0889
▁completely	-10.089
ire	-10.0894
▁focused	-10.0897
▁protection	-10.0898
▁promote	-10.0899
▁10,	-10.0902
gon	-10.0903
▁morning	-10.0905
▁exhibition	-10.0906
▁Four	-10.0908
▁Places	-10.0909
ming	-10.0915
rin	-10.0918
▁request	-10.0918
▁Marine	-10.0922
▁unable	-10.0922
din	-10.093
point	-10.0932
▁1944	-10.0934
▁stock	-10.0934
sur	-10.0947
▁titles	-10.0948
▁allows	-10.0948
▁ring	-10.0954
▁escape	-10.0956
▁winter	-10.0957
▁der	-10.0958
▁bus	-10.096
▁Another	-10.0961
|	-10.0961
▁1942	-10.0975
▁allowing	-10.098
While	-10.0987
▁Little	-10.0987
▁piece	-10.0989
rich	-10.0996
▁cannot	-10.0997
▁gives	-10.1
▁Tournament	-10.1004
oo	-10.1005
▁Junior	-10.1008
▁1936	-10.101
bb	-10.1016
▁box	-10.1019
▁1938	-10.1024
▁Sh	-10.1025
▁something	-10.1025
hy	-10.1028
▁retirement	-10.1029
▁sense	-10.103
▁simply	-10.1032
▁secret	-10.1035
▁technical	-10.1044
▁advance	-10.1045
▁1963	-10.1048
▁pe	-10.105
▁EP	-10.105
▁represent	-10.1056
▁Cat	-10.1057
▁background	-10.1058
▁graduate	-10.1061
lock	-10.1062
▁ca	-10.1062
▁Sunday	-10.1073
ency	-10.1078
ably	-10.1078
▁Each	-10.1089
▁royal	-10.1096
▁Three	-10.1102
=	-10.1103
▁Main	-10.1105
▁Cambridge	-10.1114
lum	-10.1115
▁approved	-10.1119
▁Com	-10.112
▁Melbourne	-10.1121
▁alternative	-10.1123
▁copies	-10.1129
85	-10.113
bin	-10.1134
▁opera	-10.1137
▁partnership	-10.1138
▁survey	-10.1141
▁mayor	-10.1147
▁expansion	-10.1148
gal	-10.1154
▁domestic	-10.1155
▁agent	-10.1155
▁Stone	-10.116
▁1962	-10.1166
▁1989	-10.1168
pin	-10.117
▁Christ	-10.1171
▁rank	-10.1174
▁2017.	-10.1178
▁Sub	-10.1184
13	-10.1184
▁step	-10.1186
▁Head	-10.1186
lie	-10.1189
Some	-10.1194
▁Sar	-10.1197
ew	-10.12
▁Chris	-10.1201
▁Ken	-10.1206
▁1988	-10.1209
are	-10.1213
▁11,	-10.1215
▁tradition	-10.1219
▁Fu	-10.122
▁cancer	-10.1226
▁documentary	-10.1228
ded	-10.123
▁articles	-10.1234
▁properties	-10.1236
▁sites	-10.1238
dal	-10.1239
▁1961	-10.1239
▁establishment	-10.124
▁founding	-10.1242
▁protect	-10.1242
ston	-10.1244
▁refused	-10.1244
▁safety	-10.125
▁subsequent	-10.125
_1	-10.1256
▁Prize	-10.1258
▁commission	-10.1262
▁Mike	-10.1278
▁racing	-10.1279
▁1917	-10.1279
tch	-10.1281
▁visited	-10.1283
▁etc	-10.1285
▁ending	-10.1286
▁Jim	-10.1289
▁representing	-10.1292
▁plot	-10.1299
▁selection	-10.13
aya	-10.13
▁oldest	-10.1302
▁Stephen	-10.1303
▁Cal	-10.1308
▁MP	-10.1309
▁1976	-10.1309
▁necessary	-10.131
▁engineering	-10.1312
▁Free	-10.1313
▁brothers	-10.1316
▁tree	-10.1316
65	-10.1319
▁9,	-10.1321
▁Miss	-10.1327
▁finishing	-10.1332
▁invited	-10.1335
▁mill	-10.1335
▁target	-10.1339
▁standing	-10.134
▁settled	-10.1343
▁dropped	-10.1344
▁Norwegian	-10.1345
▁fans	-10.1346
▁80	-10.1351
ets	-10.1354
▁Federation	-10.1357
▁combat	-10.1358
▁visual	-10.1358
del	-10.136
▁guard	-10.1362
▁Region	-10.1363
▁500	-10.1366
▁storm	-10.1367
▁Cre	-10.1372
▁employed	-10.1372
▁faced	-10.1377
▁Bob	-10.1382
án	-10.1384
▁scheduled	-10.1391
AC	-10.1392
▁1972	-10.1392
▁da	-10.1395
▁prize	-10.1396
ira	-10.1397
shire	-10.14
▁attacked	-10.1402
▁display	-10.1404
jan	-10.1416
▁baseball	-10.1417
21	-10.1421
▁lyrics	-10.1426
▁[[	-10.1427
▁application	-10.1432
▁funding	-10.1437
uck	-10.1437
▁Light	-10.1439
most	-10.1441
▁journalist	-10.1441
down	-10.1443
▁performing	-10.1443
▁daily	-10.1443
Star	-10.1448
also	-10.1451
▁Mountain	-10.1453
Her	-10.1456
die	-10.1456
▁fuel	-10.1456
▁want	-10.1465
▁contributed	-10.1468
run	-10.148
▁recognition	-10.1488
unt	-10.1491
▁70	-10.1494
▁1914	-10.1503
▁housing	-10.1507
yo	-10.1508
ika	-10.1512
ctor	-10.1515
▁spread	-10.1516
▁slightly	-10.1517
▁Gra	-10.1527
aka	-10.1527
▁unknown	-10.1532
▁authority	-10.1533
▁Project	-10.1536
▁Bel	-10.1539
▁vehicles	-10.1544
▁1946	-10.1544
▁1937	-10.1544
▁shared	-10.1547
rick	-10.1547
▁Ol	-10.1548
▁1968	-10.1549
▁18,	-10.1552
Vi	-10.1559
▁consecutive	-10.1562
▁attacks	-10.1567
Billboard	-10.157
▁33	-10.1579
▁Medical	-10.158
▁bishop	-10.1588
▁formerly	-10.159
▁micro	-10.1609
▁1979	-10.1609
▁peace	-10.161
▁adult	-10.1616
▁defined	-10.162
▁12,	-10.1621
ction	-10.1621
▁category	-10.1627
▁resources	-10.163
▁entry	-10.1634
▁Ze	-10.1642
▁generation	-10.1643
▁foot	-10.1645
▁crime	-10.1646
EC	-10.1647
▁shortly	-10.1649
▁peak	-10.165
Fa	-10.1651
▁1941	-10.166
election	-10.1665
▁draft	-10.1669
▁maximum	-10.1674
▁investment	-10.1675
▁cells	-10.1677
▁occupied	-10.1677
ati	-10.1683
▁Ter	-10.1683
▁versions	-10.1686
▁Up	-10.1687
▁para	-10.1689
▁relatively	-10.1696
▁Matt	-10.1697
▁System	-10.1698
▁Good	-10.1704
gent	-10.1705
▁Emperor	-10.1706
▁Wilson	-10.171
▁Wall	-10.1712
▁Ocean	-10.172
▁strike	-10.1728
▁1939	-10.173
▁Mus	-10.1731
▁methods	-10.1731
▁1943	-10.1731
ces	-10.1734
▁vice	-10.1737
▁Trust	-10.1737
▁1935	-10.174
▁electronic	-10.1741
▁occurs	-10.1744
ole	-10.1745
▁junior	-10.1746
▁vehicle	-10.1746
▁14,	-10.1748
nan	-10.1752
▁frequently	-10.1753
▁Class	-10.1754
ona	-10.1757
▁count	-10.1759
▁sell	-10.1767
med	-10.1768
▁Forest	-10.177
▁criminal	-10.1771
ida	-10.1774
▁beyond	-10.1777
▁lawyer	-10.1778
▁collaboration	-10.178
▁Cho	-10.1784
▁accident	-10.1786
▁Camp	-10.1791
▁1975	-10.1791
▁learning	-10.1791
sia	-10.1791
▁disc	-10.1801
▁Rose	-10.1804
ave	-10.1806
Gu	-10.1806
▁1910	-10.1808
▁Captain	-10.1809
▁institutions	-10.1809
▁bo	-10.1812
▁Pen	-10.1815
▁albums	-10.1815
ins	-10.1815
▁1933	-10.1816
▁Arm	-10.1823
▁reform	-10.1827
▁airport	-10.1828
▁15,	-10.183
▁attempted	-10.183
▁hockey	-10.1831
55	-10.1839
▁educated	-10.1842
▁Ye	-10.185
▁Out	-10.1851
▁girls	-10.1851
▁hair	-10.1852
▁reduce	-10.1852
▁Arab	-10.1857
▁scale	-10.1859
▁Taylor	-10.1863
▁Hot	-10.1865
ban	-10.1866
▁attempts	-10.1867
▁choice	-10.1869
▁failure	-10.1872
▁hands	-10.1874
▁equal	-10.1878
tis	-10.1884
part	-10.1886
bury	-10.1887
▁Davis	-10.1892
▁1984	-10.1894
▁Norway	-10.1894
▁iron	-10.1897
ón	-10.1897
▁Affairs	-10.1897
▁Moscow	-10.19
▁glass	-10.1905
▁1929	-10.1907
▁Time	-10.1913
▁extension	-10.1916
▁contest	-10.1917
▁Kan	-10.1917
▁brick	-10.1924
eng	-10.1929
▁opposed	-10.1934
▁23,	-10.1937
▁candidates	-10.1937
ora	-10.194
47	-10.1941
▁behavior	-10.1949
▁le	-10.1951
tar	-10.1958
▁News	-10.1962
▁improve	-10.1963
▁path	-10.1964
▁Lewis	-10.1964
▁drug	-10.1965
▁1974	-10.1967
rate	-10.1968
▁converted	-10.197
▁Ed	-10.1971
tte	-10.1972
▁et	-10.1978
▁sequence	-10.1978
mit	-10.1979
▁arch	-10.198
▁2003,	-10.1982
▁planning	-10.1982
▁pilot	-10.1988
▁environmental	-10.1988
▁developing	-10.1992
▁sides	-10.1993
▁2007.	-10.1998
aj	-10.1998
▁fleet	-10.1999
▁effective	-10.2
US	-10.2003
bor	-10.2004
▁machine	-10.2005
▁Point	-10.201
38	-10.2011
rt	-10.2015
▁herself	-10.2017
dia	-10.2021
▁Ham	-10.2021
▁stating	-10.2022
48	-10.2023
General	-10.2027
▁ultimately	-10.203
▁Memorial	-10.2034
▁extensive	-10.204
▁Human	-10.2046
▁Vice	-10.2048
▁permanent	-10.2055
▁notes	-10.2056
▁screen	-10.2057
pu	-10.2057
▁Ray	-10.2059
dom	-10.206
▁poll	-10.2061
▁row	-10.2061
▁22,	-10.2062
▁say	-10.2062
▁Community	-10.2063
▁1987	-10.2066
▁lo	-10.2067
▁neighborhood	-10.2068
▁1928	-10.2072
▁successfully	-10.2074
▁gain	-10.2077
ks	-10.2078
▁normal	-10.2078
▁meant	-10.2079
▁reaction	-10.2082
▁ceremony	-10.2083
▁engineer	-10.2094
▁13,	-10.2097
▁patients	-10.2098
▁2018.	-10.21
▁arts	-10.2102
▁supporting	-10.2104
▁Country	-10.2107
▁45	-10.2111
▁90	-10.2114
▁climate	-10.2115
▁determined	-10.2118
hill	-10.2119
▁Song	-10.2127
▁Beach	-10.2128
▁castle	-10.2132
▁26,	-10.2134
▁21,	-10.2142
▁establish	-10.2143
▁try	-10.2145
sey	-10.2147
▁36	-10.2148
▁Son	-10.2155
▁1900	-10.2163
▁27,	-10.2166
▁28,	-10.2171
▁premiered	-10.2171
▁1924	-10.2173
▁Medal	-10.2177
▁Vietnam	-10.2184
▁1977	-10.2185
oma	-10.2186
▁internal	-10.2189
▁signal	-10.219
▁praised	-10.2192
▁sought	-10.2192
▁Ross	-10.2192
▁actions	-10.2193
ī	-10.2193
▁25,	-10.2195
▁Philippines	-10.2197
▁increasing	-10.2197
▁motor	-10.2199
▁resigned	-10.22
▁residence	-10.2202
story	-10.2203
▁write	-10.2203
see	-10.2205
▁covers	-10.2213
▁#	-10.2214
▁rugby	-10.2218
▁1978	-10.2219
▁Anna	-10.2221
▁(;	-10.2222
star	-10.2231
▁negative	-10.2232
▁BC	-10.2233
mont	-10.2236
arm	-10.2237
▁1934	-10.2242
▁reading	-10.2243
Go	-10.2243
▁Bowl	-10.2247
▁sons	-10.2247
▁identity	-10.2252
▁citizens	-10.2264
▁regions	-10.2264
▁abandoned	-10.227
▁Au	-10.2281
▁1986	-10.2287
▁funds	-10.2292
▁locations	-10.2293
▁Wisconsin	-10.2294
▁Hol	-10.2295
nal	-10.2296
▁Military	-10.2296
▁needs	-10.2297
▁flat	-10.2298
▁Lady	-10.2303
▁app	-10.2306
sp	-10.2307
▁onto	-10.2308
▁districts	-10.2317
49	-10.2317
▁Dis	-10.2318
▁narrow	-10.232
▁Cape	-10.232
aki	-10.2323
▁Maryland	-10.2326
eb	-10.233
▁religion	-10.2333
▁Manchester	-10.2338
37	-10.2339
ble	-10.2343
▁price	-10.2344
▁30,	-10.2346
▁arms	-10.2353
▁Ak	-10.2354
▁fashion	-10.2354
▁participate	-10.2355
▁19,	-10.2359
▁finds	-10.236
▁advantage	-10.2366
▁Tennessee	-10.2371
isation	-10.2372
▁Member	-10.2376
Bar	-10.238
▁Tre	-10.2382
▁representative	-10.2383
▁Command	-10.2383
▁grade	-10.2383
31	-10.2394
▁1973	-10.2395
▁Route	-10.2395
▁Oregon	-10.2397
▁1969	-10.2409
▁Carl	-10.2418
▁offices	-10.2419
▁connection	-10.2421
▁Winter	-10.2426
▁matter	-10.2428
Ja	-10.2433
▁camera	-10.2436
▁squadron	-10.2436
▁collected	-10.244
nic	-10.2442
Ch	-10.2443
▁powerful	-10.2444
▁Ser	-10.2444
▁Golden	-10.2445
▁walk	-10.2447
36	-10.2447
▁24,	-10.2447
▁Os	-10.2447
▁containing	-10.2448
ants	-10.2449
▁economy	-10.245
▁Among	-10.245
tta	-10.2457
▁paintings	-10.2459
▁killing	-10.2464
▁broad	-10.2467
▁Pra	-10.247
ball	-10.2478
▁Sciences	-10.248
▁Building	-10.2482
▁installed	-10.2484
▁boat	-10.2488
▁us	-10.2489
IS	-10.249
▁animals	-10.2493
dle	-10.2493
▁Studies	-10.2501
▁Program	-10.2501
▁End	-10.2504
66	-10.2506
▁1971	-10.2508
▁Fair	-10.2509
▁interior	-10.251
▁joining	-10.251
▁1932	-10.2512
▁save	-10.2515
only	-10.2517
▁contrast	-10.252
▁attend	-10.2523
▁chain	-10.2523
▁Austria	-10.2523
▁2020.	-10.2525
▁McC	-10.2529
▁yellow	-10.253
▁basic	-10.2537
▁card	-10.2537
▁Doctor	-10.2543
▁Singapore	-10.2548
▁34	-10.2551
gh	-10.2553
64	-10.2556
▁1925	-10.2558
▁purchase	-10.2558
rid	-10.256
▁Sur	-10.2561
▁mine	-10.2568
ington	-10.2571
Da	-10.2575
▁Ford	-10.2576
▁Channel	-10.2576
▁chance	-10.2577
▁wind	-10.2579
Ne	-10.258
▁believe	-10.2582
▁valley	-10.2584
▁theme	-10.2592
▁merged	-10.2599
▁pieces	-10.2604
Ex	-10.2605
▁volume	-10.2609
▁walls	-10.2613
▁20,	-10.2614
▁Walter	-10.2616
▁regarding	-10.262
▁Nu	-10.2622
▁colour	-10.2623
▁Vol	-10.2626
▁counter	-10.2626
▁1922	-10.2626
▁Management	-10.2629
▁protest	-10.2633
▁hired	-10.2638
▁Labour	-10.2639
RA	-10.2649
▁o	-10.2654
▁Israeli	-10.2656
oli	-10.2658
▁your	-10.2659
▁1912	-10.266
▁Ly	-10.2669
▁literary	-10.267
▁violence	-10.2675
▁reasons	-10.2678
▁worldwide	-10.2679
▁Nazi	-10.2683
▁mind	-10.2683
▁enter	-10.2691
▁Gen	-10.2692
key	-10.2693
▁Conservative	-10.2698
▁Ukraine	-10.2699
room	-10.27
vy	-10.2706
▁reign	-10.2707
▁bio	-10.2708
spir	-10.2711
▁Christmas	-10.2711
▁doing	-10.2712
ration	-10.2719
32	-10.272
▁debuted	-10.2722
▁Tim	-10.2723
▁Final	-10.2723
▁1927	-10.2725
▁voted	-10.2731
bre	-10.2734
▁Switzerland	-10.2735
▁1967	-10.2737
tern	-10.2738
▁Mas	-10.274
ym	-10.2741
▁reaching	-10.2742
Th	-10.2751
▁trees	-10.2751
▁Fo	-10.2761
33	-10.2763
rant	-10.2765
77	-10.2766
▁(1	-10.2767
tru	-10.2768
▁29,	-10.2774
▁journal	-10.2776
▁Ltd	-10.2779
▁Pri	-10.2782
▁1985	-10.2782
▁rare	-10.2783
ila	-10.2785
▁ho	-10.2785
▁trained	-10.2788
▁engaged	-10.279
34	-10.2791
▁cycle	-10.2792
mat	-10.2796
vent	-10.2796
▁structures	-10.2797
Or	-10.2797
2.	-10.2797
▁influenced	-10.2799
RC	-10.2804
44	-10.281
▁Turkey	-10.2811
▁Magazine	-10.2811
ute	-10.2814
▁theater	-10.2814
▁ski	-10.2823
▁educational	-10.2827
▁1931	-10.283
▁w	-10.2831
International	-10.2832
▁Journal	-10.2832
▁limit	-10.2832
ú	-10.2835
iv	-10.2837
▁16,	-10.2838
cen	-10.2838
▁passenger	-10.2838
▁slow	-10.2839
▁Tar	-10.2843
▁concluded	-10.2847
▁Officer	-10.2849
ela	-10.2854
▁letters	-10.2855
▁Tan	-10.2855
▁2001,	-10.2858
ami	-10.286
▁Gor	-10.2865
▁1983	-10.2867
▁cricket	-10.2868
87	-10.2876
è	-10.2876
▁Mag	-10.2878
Although	-10.2879
▁expressed	-10.2883
wo	-10.2892
▁appeal	-10.2892
▁Arthur	-10.2892
▁Cro	-10.2897
▁Dam	-10.2899
▁carry	-10.2906
▁passing	-10.291
▁nuclear	-10.2912
67	-10.2912
lle	-10.2917
▁Del	-10.2934
▁trying	-10.2936
wer	-10.294
▁aged	-10.2942
▁Simon	-10.2943
▁trans	-10.2945
▁steel	-10.2947
ved	-10.2948
▁rating	-10.2953
▁Fire	-10.2953
rat	-10.2955
matic	-10.2956
term	-10.2961
▁Mur	-10.2966
▁Communist	-10.2973
▁opportunity	-10.2974
▁Dun	-10.2976
▁400	-10.2976
▁sets	-10.2976
▁municipal	-10.2978
▁rich	-10.298
▁2002,	-10.2987
gle	-10.299
▁1921	-10.2998
▁1923	-10.3
▁scheme	-10.3005
▁ensure	-10.3005
▁respect	-10.3005
▁Tor	-10.3007
och	-10.3014
▁1926	-10.3017
ali	-10.3017
SC	-10.3017
▁combination	-10.302
▁twelve	-10.3022
▁agency	-10.3024
:00	-10.3026
bus	-10.3027
▁proved	-10.3027
▁aid	-10.3032
▁stadium	-10.3033
▁Sand	-10.3034
esh	-10.3035
yer	-10.3038
▁Tamil	-10.3038
▁spin	-10.3044
▁Anne	-10.3047
▁Hockey	-10.305
▁Egypt	-10.305
▁laid	-10.3052
▁don	-10.3053
ister	-10.3053
▁NFL	-10.3056
▁centuries	-10.3057
▁Muslim	-10.3059
▁Revolution	-10.3066
place	-10.3066
86	-10.3067
▁Design	-10.3068
▁1916	-10.3071
▁formal	-10.3076
ima	-10.308
▁starts	-10.3083
stein	-10.3083
▁exist	-10.3085
▁secretary	-10.3086
So	-10.3088
▁Albert	-10.3088
▁heavily	-10.3089
78	-10.309
int	-10.3091
▁ban	-10.3093
▁contained	-10.3095
cia	-10.3097
▁$2	-10.3098
▁reserve	-10.3098
▁really	-10.3098
wick	-10.31
lor	-10.3101
▁Executive	-10.3103
tus	-10.3103
▁enemy	-10.3105
▁debate	-10.3107
▁derived	-10.3117
ill	-10.3119
▁argued	-10.3119
▁registered	-10.3121
▁ta	-10.3122
▁opinion	-10.3123
▁Holy	-10.3126
▁Mill	-10.3131
▁composition	-10.3132
▁object	-10.3134
▁importance	-10.3137
▁Ci	-10.3141
▁1915	-10.3142
05	-10.3143
▁acid	-10.3146
▁critic	-10.3147
▁employees	-10.3147
▁Arizona	-10.315
▁Turkish	-10.3151
01	-10.3151
ash	-10.3151
▁decades	-10.3158
ado	-10.3163
▁translation	-10.3164
▁maintained	-10.3169
▁Colorado	-10.317
▁existence	-10.317
My	-10.3172
lay	-10.3174
▁speech	-10.3174
▁ro	-10.3181
69	-10.3183
nia	-10.3183
hn	-10.3184
▁driver	-10.3186
▁injured	-10.3191
▁pen	-10.3198
▁2006.	-10.3202
▁serious	-10.3207
▁crowd	-10.3208
▁appointment	-10.3211
▁sale	-10.3211
ros	-10.3214
▁Hotel	-10.3216
▁Trans	-10.3218
▁feed	-10.3218
Jo	-10.3219
mes	-10.3224
who	-10.3224
gate	-10.3225
▁2000,	-10.3228
teen	-10.3228
log	-10.323
56	-10.3232
▁17,	-10.3232
▁historian	-10.3237
▁door	-10.3242
▁independence	-10.3242
▁acts	-10.3244
▁challenge	-10.3246
46	-10.3253
▁habitat	-10.3253
▁Test	-10.3259
▁Mid	-10.3259
▁fan	-10.3264
ges	-10.3266
▁phone	-10.3267
▁Part	-10.3268
▁scenes	-10.3271
▁Kim	-10.3274
▁consisting	-10.3276
▁Pope	-10.3277
▁pa	-10.3278
▁Wil	-10.3279
▁capture	-10.3281
▁views	-10.3281
88	-10.3284
▁Greater	-10.3288
ising	-10.3289
▁heat	-10.3293
ons	-10.3293
▁description	-10.3294
▁Dor	-10.3298
san	-10.3301
▁Infantry	-10.3304
▁sport	-10.3304
▁1982	-10.3307
▁Hamilton	-10.3307
▁income	-10.3307
▁organ	-10.3308
▁Steve	-10.331
▁Angel	-10.3312
▁1965	-10.3315
▁painted	-10.3319
str	-10.3321
79	-10.3322
▁Gallery	-10.3322
▁statement	-10.3324
▁Square	-10.3326
▁operate	-10.3326
▁determine	-10.3326
▁causing	-10.3327
▁flag	-10.3328
▁symbol	-10.3329
95	-10.333
▁Czech	-10.333
▁chose	-10.3331
▁Area	-10.3331
zu	-10.3335
▁dam	-10.3336
▁boy	-10.3337
č	-10.3344
▁budget	-10.3349
▁2005.	-10.3351
▁landscape	-10.3351
▁designer	-10.3354
▁producing	-10.3358
▁Alex	-10.336
▁let	-10.3366
▁Minnesota	-10.3367
▁Earl	-10.3368
.”	-10.3369
84	-10.337
▁flow	-10.337
Education	-10.3378
▁Ger	-10.3387
▁Regional	-10.3387
▁Yo	-10.3387
ska	-10.339
▁suit	-10.3391
▁Qu	-10.3393
▁bit	-10.3396
lis	-10.3405
LA	-10.3408
eo	-10.3409
ock	-10.3413
she	-10.3414
▁poetry	-10.3415
eva	-10.3416
▁tri	-10.3419
▁kill	-10.3427
▁seventh	-10.3431
▁alone	-10.3432
▁chair	-10.3432
▁steam	-10.3433
-18	-10.3434
ians	-10.3434
57	-10.3435
▁mu	-10.3437
▁core	-10.3442
▁calling	-10.345
▁entirely	-10.3451
99	-10.3452
▁toward	-10.3468
Pe	-10.347
▁classical	-10.347
▁Brigade	-10.3471
▁trip	-10.3473
▁fields	-10.3474
▁animal	-10.3478
▁describes	-10.3481
▁mode	-10.3494
align	-10.3495
▁eye	-10.3498
▁threat	-10.3503
thi	-10.3511
▁ob	-10.3515
▁Miller	-10.3515
▁closely	-10.3519
▁Squadron	-10.3521
▁1918	-10.3522
▁DVD	-10.3523
ique	-10.3523
▁hill	-10.353
▁functions	-10.3531
▁Live	-10.3532
▁factory	-10.3535
▁Boy	-10.3536
eu	-10.3537
▁Rad	-10.3537
▁singing	-10.3537
▁Hor	-10.3539
▁fast	-10.3541
▁Raj	-10.3541
ova	-10.3541
▁improved	-10.3545
▁ethnic	-10.3545
▁specifically	-10.3545
▁Foreign	-10.3547
ua	-10.3548
▁Engineering	-10.3553
▁refers	-10.3556
▁brief	-10.3563
CA	-10.3564
▁incorporated	-10.3564
ties	-10.3568
▁(2	-10.3568
▁tall	-10.3574
▁Bri	-10.3575
▁Ukrainian	-10.3576
▁Swiss	-10.3586
▁minute	-10.3587
–3	-10.3599
";	-10.3601
Ca	-10.3601
kov	-10.3606
hl	-10.3606
▁listing	-10.3608
▁personnel	-10.3608
▁Jews	-10.3609
▁Security	-10.3615
▁clean	-10.3616
▁towns	-10.3616
▁bomb	-10.3619
▁Warsaw	-10.3622
zer	-10.3623
▁getting	-10.3623
▁CEO	-10.3623
▁bodies	-10.3625
▁Representatives	-10.3626
▁guns	-10.3628
Un	-10.3628
▁custom	-10.363
▁occur	-10.363
▁electric	-10.3633
▁session	-10.3633
▁passes	-10.3636
Di	-10.3636
▁credit	-10.3637
42	-10.3639
▁talk	-10.3639
▁Temple	-10.364
▁Win	-10.3641
▁ahead	-10.3644
▁fruit	-10.3646
pri	-10.3655
▁seek	-10.3661
▁distributed	-10.3666
▁consider	-10.3669
▁Due	-10.3669
▁genre	-10.3671
pel	-10.3673
lad	-10.3684
▁Battalion	-10.3685
▁Before	-10.3689
ū	-10.3689
100	-10.3693
▁ways	-10.3694
▁affected	-10.3696
level	-10.3697
▁garden	-10.37
▁fl	-10.37
season	-10.37
▁tries	-10.3704
68	-10.3705
▁introduction	-10.3706
59	-10.3709
ille	-10.3715
ient	-10.3722
▁web	-10.3722
nar	-10.3722
▁users	-10.3723
▁quite	-10.3731
41	-10.3732
Category	-10.3733
▁Because	-10.3734
▁strength	-10.3734
▁1981	-10.3735
▁Hay	-10.3739
rit	-10.3744
▁applications	-10.375
fin	-10.375
▁Ball	-10.3752
▁replace	-10.3754
▁address	-10.3754
5,000	-10.3762
DA	-10.3762
▁Not	-10.3763
▁Jacob	-10.3765
▁observed	-10.377
▁Entertainment	-10.3773
Music	-10.3773
▁hour	-10.3775
▁temperature	-10.3777
▁Portuguese	-10.3777
▁print	-10.3778
▁Sho	-10.3782
58	-10.3782
gel	-10.3784
▁calls	-10.3788
▁presidential	-10.3788
▁Legislative	-10.3792
▁transition	-10.3794
lia	-10.3806
▁strip	-10.3811
▁weather	-10.3811
mu	-10.3812
▁map	-10.3817
▁conduct	-10.3817
09	-10.3818
▁IV	-10.382
rk	-10.3822
Men	-10.3826
Su	-10.3829
▁Bor	-10.3829
AR	-10.383
54	-10.3831
▁na	-10.3833
▁races	-10.3838
08	-10.384
▁wins	-10.3849
▁Rugby	-10.3849
▁List	-10.385
▁Real	-10.3858
39	-10.3859
rn	-10.3865
▁briefly	-10.3865
▁Deputy	-10.3872
▁engines	-10.3875
▁invasion	-10.3875
ace	-10.3878
▁38	-10.3887
▁organisation	-10.3887
▁programming	-10.3892
▁Prix	-10.3894
▁franchise	-10.3895
▁soil	-10.3901
▁Television	-10.3902
▁Austrian	-10.3903
▁regularly	-10.3906
▁context	-10.3913
▁Fame	-10.3919
▁labor	-10.3921
▁Ottoman	-10.3923
▁details	-10.3927
mus	-10.3929
Qu	-10.393
▁decade	-10.393
▁survived	-10.3937
ced	-10.3938
▁coal	-10.3941
61	-10.3945
▁touchdown	-10.3948
▁comic	-10.3949
thy	-10.3956
▁1913	-10.3959
▁heard	-10.396
▁armed	-10.3961
CC	-10.3964
non	-10.3966
▁weapons	-10.3966
▁Howard	-10.3972
▁po	-10.3973
ean	-10.3975
63	-10.3976
▁dating	-10.3976
74	-10.3979
▁si	-10.3982
▁accused	-10.3983
▁300	-10.3983
▁philosophy	-10.3984
gra	-10.3986
▁arrest	-10.399
▁Youth	-10.3993
▁statue	-10.3994
▁Hi	-10.3995
▁Kansas	-10.3996
▁piano	-10.3997
Bi	-10.3998
▁FM	-10.4001
ert	-10.4005
▁laws	-10.4007
▁contain	-10.4013
▁Den	-10.4014
eri	-10.4018
qua	-10.4023
▁Ven	-10.4023
▁Commonwealth	-10.4024
▁ruled	-10.4024
gram	-10.4029
▁occupation	-10.403
ators	-10.4033
▁agricultural	-10.4034
▁skills	-10.4035
▁speak	-10.404
▁Village	-10.4045
IC	-10.4049
▁ideas	-10.4057
oni	-10.406
rian	-10.4061
▁Fund	-10.4064
▁l	-10.4068
▁Kam	-10.4069
▁Play	-10.4071
▁Ag	-10.4075
▁instance	-10.4075
mond	-10.4077
▁parallel	-10.4078
▁Kat	-10.4079
▁Cur	-10.408
▁shooting	-10.408
▁Services	-10.4081
▁Mont	-10.4083
▁Es	-10.4086
▁chemical	-10.4086
▁add	-10.4088
NA	-10.409
▁trail	-10.4095
onic	-10.4095
▁send	-10.4101
▁sha	-10.4103
gin	-10.4105
▁evening	-10.4109
▁Dean	-10.411
els	-10.4113
▁poly	-10.4113
▁Senior	-10.4114
chen	-10.4115
07	-10.412
mic	-10.4121
▁Sound	-10.4124
▁northeast	-10.4124
▁ranking	-10.4125
▁dates	-10.413
▁fair	-10.4133
Geography	-10.4134
▁priest	-10.4135
▁Anti	-10.4136
Ju	-10.4138
▁1911	-10.4139
FC	-10.4142
pper	-10.4144
▁stream	-10.4147
▁Cap	-10.4149
lli	-10.4153
?"	-10.4153
Production	-10.4154
▁committed	-10.4154
▁successor	-10.4161
▁Chairman	-10.4163
▁Opera	-10.4164
yr	-10.4166
▁Heart	-10.4168
ben	-10.4174
▁37	-10.4175
▁folk	-10.4177
▁expression	-10.418
▁vocals	-10.4181
book	-10.4182
81	-10.4183
▁brain	-10.4188
▁UN	-10.4189
body	-10.4194
▁grant	-10.4195
▁controlled	-10.4203
▁musician	-10.4204
▁Chart	-10.4213
ography	-10.4215
▁demand	-10.4218
awa	-10.4218
▁interests	-10.422
▁damaged	-10.4221
▁Diego	-10.4223
Fi	-10.423
eth	-10.4235
▁didn	-10.4236
▁hundred	-10.4238
▁grand	-10.4239
▁Kh	-10.4239
[[	-10.4242
▁Sol	-10.4245
▁adjacent	-10.4246
▁publications	-10.425
▁Missouri	-10.4256
▁drawn	-10.4257
▁plane	-10.4258
▁des	-10.4259
▁Alabama	-10.427
▁Bla	-10.4271
▁offering	-10.4272
bridge	-10.4273
▁accept	-10.4276
43	-10.4276
una	-10.4282
▁fiction	-10.4286
▁regarded	-10.4286
▁learn	-10.4288
62	-10.4289
▁window	-10.4293
▁Ste	-10.43
▁Rio	-10.43
▁windows	-10.4314
▁objects	-10.4314
PA	-10.4326
zy	-10.4328
▁lose	-10.433
▁Senator	-10.4331
▁qualifying	-10.4335
▁Administration	-10.4336
▁standards	-10.4337
▁49	-10.4341
MS	-10.4341
▁device	-10.4342
▁Char	-10.4344
aga	-10.4344
▁1908	-10.4355
72	-10.436
ular	-10.4363
ava	-10.4366
▁showing	-10.437
uc	-10.4374
▁reality	-10.4377
▁Tony	-10.4378
Mu	-10.438
▁assault	-10.4386
▁Harvard	-10.4387
▁Sel	-10.4389
ox	-10.439
including	-10.4406
53	-10.4408
▁seems	-10.4414
▁Adam	-10.4416
▁struggle	-10.4416
▁1890	-10.4419
▁medicine	-10.4422
Later	-10.4423
▁Mil	-10.4425
▁drop	-10.4429
▁Max	-10.443
▁techniques	-10.4431
▁battalion	-10.4433
▁contributions	-10.4435
gy	-10.4435
▁institution	-10.4436
▁classic	-10.4437
▁distinct	-10.4439
▁Lar	-10.444
▁maintain	-10.4443
▁meters	-10.4444
▁bottom	-10.4446
▁shop	-10.4446
worth	-10.4448
chan	-10.4463
▁links	-10.4464
▁defeating	-10.447
▁actual	-10.4473
mas	-10.4474
51	-10.4475
ense	-10.4475
list	-10.4482
nk	-10.4483
▁bond	-10.4483
▁broken	-10.4484
Club	-10.4486
▁1999,	-10.4486
ien	-10.4487
▁Philip	-10.4487
▁raid	-10.4488
▁Indiana	-10.4492
▁Sim	-10.4493
▁why	-10.4494
▁Down	-10.4495
▁progress	-10.4503
▁crossing	-10.4507
▁gender	-10.4509
▁Sin	-10.4512
▁Grant	-10.4515
master	-10.4515
leg	-10.4515
▁Bad	-10.452
▁wounded	-10.4523
▁looking	-10.4524
aba	-10.4524
▁pattern	-10.4533
▁Bon	-10.4535
ld	-10.4536
▁Week	-10.4537
pping	-10.4539
Distribution	-10.4544
▁Montreal	-10.4545
▁caught	-10.4545
▁images	-10.4549
▁fear	-10.4552
lip	-10.4553
▁typical	-10.4554
▁Ren	-10.4557
▁exhibit	-10.4557
▁severe	-10.4559
▁rain	-10.4561
▁Quebec	-10.4561
▁items	-10.4563
ø	-10.4563
▁page	-10.4564
▁Houston	-10.457
▁Kent	-10.4573
▁Tokyo	-10.4573
ł	-10.4574
▁Br	-10.4574
▁associate	-10.4575
▁answer	-10.4577
▁winners	-10.4586
▁FA	-10.4586
▁measures	-10.4588
ax	-10.459
ré	-10.4593
nis	-10.4594
nik	-10.4595
▁criticism	-10.4595
▁Dublin	-10.4598
▁Kra	-10.46
aire	-10.4603
▁northwest	-10.4604
aries	-10.4613
▁Nick	-10.4614
▁stood	-10.4614
FA	-10.4615
elli	-10.4615
▁42	-10.4615
get	-10.4617
▁raise	-10.4617
▁benefit	-10.4621
▁delivered	-10.4622
▁freedom	-10.4622
You	-10.4623
▁possibly	-10.4623
▁Kal	-10.4625
pot	-10.4626
▁Edinburgh	-10.4626
ologist	-10.4628
▁Review	-10.4631
▁retained	-10.4634
mis	-10.4636
lly	-10.464
▁lu	-10.4641
ić	-10.4642
Final	-10.4648
▁Harry	-10.4649
▁Danish	-10.465
▁gets	-10.4651
las	-10.4656
▁Like	-10.4658
▁2004.	-10.466
▁jazz	-10.4661
▁opposite	-10.4662
52	-10.4663
Before	-10.4666
▁Shah	-10.4669
Mi	-10.467
but	-10.4671
▁Motor	-10.4671
▁residential	-10.4673
▁Ann	-10.4674
ste	-10.4675
▁selling	-10.4678
▁Baseball	-10.4679
▁headed	-10.468
gun	-10.4681
▁stands	-10.4682
▁Med	-10.469
▁rooms	-10.4691
▁Plan	-10.4694
▁Lieutenant	-10.4698
▁Nan	-10.4701
04	-10.4701
▁Naval	-10.4701
▁Sky	-10.4701
▁courses	-10.4701
▁pool	-10.4706
▁churches	-10.4707
▁innings	-10.4708
▁earliest	-10.4714
▁merchant	-10.4714
BA	-10.4715
▁starred	-10.4721
76	-10.4731
82	-10.4732
Har	-10.4734
▁publishing	-10.4736
TA	-10.4737
▁Denmark	-10.4738
▁adaptation	-10.4743
▁Forces	-10.4752
▁Jesus	-10.4755
iel	-10.4755
▁Victorian	-10.4757
Pre	-10.4757
▁honour	-10.4759
▁watch	-10.4761
▁gate	-10.4762
avi	-10.4772
Dr	-10.4772
▁Run	-10.4773
tom	-10.4776
▁values	-10.4779
–6	-10.4781
▁sections	-10.4781
▁cap	-10.4781
▁Hollywood	-10.4782
▁Islamic	-10.4782
dor	-10.4785
▁margin	-10.4786
▁replacement	-10.4789
▁Metro	-10.4791
▁easily	-10.4792
▁charged	-10.4792
▁am	-10.4793
▁peaked	-10.4794
ów	-10.4799
pha	-10.4802
▁bass	-10.4802
▁admitted	-10.4803
▁lay	-10.4804
▁defensive	-10.4812
▁membership	-10.4816
Am	-10.4817
▁mono	-10.4819
▁communication	-10.482
▁rose	-10.4821
▁Var	-10.4826
▁Lin	-10.4828
▁interested	-10.483
TC	-10.483
▁duty	-10.4832
▁Brazilian	-10.4836
▁Reserve	-10.4839
▁arrival	-10.4841
▁Cam	-10.4842
▁2002.	-10.4844
state	-10.4845
ras	-10.485
▁memorial	-10.4851
▁Kentucky	-10.4859
▁parliament	-10.486
▁attached	-10.4864
▁driving	-10.4864
▁experienced	-10.4867
▁favor	-10.4869
▁Nor	-10.4871
▁motion	-10.4872
▁legislation	-10.4874
06	-10.4877
▁mental	-10.4878
▁Gordon	-10.4881
band	-10.4881
▁picture	-10.4885
▁expedition	-10.4885
-3	-10.4885
▁Mayor	-10.4891
▁Iowa	-10.4892
▁criticized	-10.4893
bat	-10.4896
▁Hal	-10.4896
ack	-10.4898
▁deputy	-10.49
▁rejected	-10.4904
▁require	-10.4904
▁check	-10.4905
its	-10.4907
rea	-10.4907
▁champions	-10.4908
▁31,	-10.4909
▁sun	-10.4912
▁Commander	-10.4917
▁Mah	-10.4919
▁medium	-10.4923
▁journey	-10.4924
AA	-10.4924
▁businesses	-10.4925
▁biggest	-10.4927
▁causes	-10.4928
▁accompanied	-10.4931
Per	-10.4933
Bu	-10.4935
ral	-10.4938
▁circuit	-10.494
▁Today	-10.4943
▁photo	-10.4945
ulation	-10.4945
▁operates	-10.4946
▁ill	-10.4947
▁graduating	-10.4947
▁Cemetery	-10.4959
▁1905	-10.4959
zh	-10.4962
▁Hy	-10.4962
lee	-10.4962
elle	-10.4966
▁anniversary	-10.4967
▁understanding	-10.4967
ret	-10.4968
lands	-10.4972
▁credited	-10.4972
▁offensive	-10.4974
▁Phil	-10.4974
▁Rev	-10.4975
ato	-10.4975
▁comp	-10.4975
hen	-10.4977
hood	-10.4978
▁flood	-10.4979
SS	-10.4983
▁charges	-10.4986
▁crisis	-10.4987
▁license	-10.4989
ged	-10.4993
iti	-10.4993
bound	-10.4993
bon	-10.4999
▁Luc	-10.5
▁storage	-10.5001
▁resistance	-10.5007
▁faculty	-10.5008
▁Detroit	-10.501
▁landing	-10.501
▁1906	-10.5017
▁depth	-10.5024
1.	-10.5029
▁Family	-10.5031
▁Independent	-10.5032
▁Miami	-10.5033
▁Then	-10.5042
▁Tro	-10.5042
89	-10.5042
▁(3	-10.5044
▁arranged	-10.5046
mmer	-10.5047
▁musicians	-10.505
▁jump	-10.505
▁48	-10.5051
▁Moore	-10.5053
▁exercise	-10.5055
▁Argentina	-10.5056
▁Patrick	-10.5057
▁Rights	-10.5057
▁user	-10.5057
ink	-10.5058
▁Eric	-10.5061
▁flying	-10.5062
▁tank	-10.5062
anda	-10.5064
pen	-10.5064
▁Brian	-10.5068
William	-10.5068
▁(16	-10.5075
▁lands	-10.5077
BS	-10.5077
▁restaurant	-10.5078
▁Clark	-10.5079
some	-10.508
▁seed	-10.5081
bed	-10.5083
▁Athletic	-10.5084
▁dry	-10.5085
oid	-10.5088
stan	-10.5089
▁Third	-10.5089
▁Walker	-10.509
▁Ros	-10.5092
▁restored	-10.5092
▁Nepal	-10.5092
▁reflect	-10.5096
▁nothing	-10.5102
First	-10.5103
atory	-10.5104
73	-10.5108
Death	-10.5109
plication	-10.5109
vid	-10.511
▁Guard	-10.5115
▁carrying	-10.5115
range	-10.5125
71	-10.5128
▁missing	-10.513
▁kick	-10.5131
▁ends	-10.5133
▁notably	-10.5134
Awards	-10.5136
San	-10.5139
▁provincial	-10.5139
▁retail	-10.5139
mir	-10.5141
▁representation	-10.5146
▁grounds	-10.5148
▁writers	-10.5148
▁documents	-10.5148
▁Belgium	-10.515
▁Sen	-10.5152
type	-10.5152
▁Harris	-10.5153
Ga	-10.5153
burn	-10.5155
▁Jay	-10.5155
▁revenue	-10.5156
▁duties	-10.5159
▁solid	-10.516
▁1907	-10.5161
▁orders	-10.5162
▁ch	-10.5165
▁75	-10.5166
▁Though	-10.5167
▁classified	-10.517
▁Il	-10.517
▁costs	-10.5174
met	-10.5174
▁greatest	-10.5178
▁locality	-10.5178
IA	-10.5182
▁stores	-10.5183
ER	-10.5184
▁Singh	-10.5186
▁goods	-10.5188
til	-10.519
rap	-10.5191
ele	-10.5191
▁abuse	-10.5194
lla	-10.5196
style	-10.5199
▁assistance	-10.52
▁assumed	-10.5201
▁panel	-10.5202
96	-10.5202
03	-10.5203
▁boys	-10.5204
▁represents	-10.5204
▁Hindu	-10.5208
▁divisions	-10.5208
▁stopped	-10.5211
▁learned	-10.5211
▁Indonesia	-10.5212
▁victims	-10.5212
▁Report	-10.5212
▁Cra	-10.5216
▁Between	-10.5226
▁substitute	-10.5227
▁Prior	-10.5231
▁tend	-10.5235
▁Spring	-10.5235
▁railroad	-10.5236
enberg	-10.5237
▁justice	-10.5248
▁grow	-10.5249
vert	-10.5249
bro	-10.5253
cra	-10.5258
▁translated	-10.5258
▁Count	-10.5259
bil	-10.526
▁cup	-10.5264
▁fund	-10.5265
▁41	-10.5266
▁1909	-10.5278
▁hip	-10.5279
▁exception	-10.5287
lov	-10.5287
▁prepared	-10.5301
▁Thus	-10.5302
▁2021,	-10.5308
▁Greece	-10.5315
▁Tur	-10.5318
▁catch	-10.5324
itation	-10.5327
▁mining	-10.5328
▁shift	-10.5333
▁wear	-10.5333
▁illegal	-10.5333
Critical	-10.5333
ae	-10.5333
▁responsibility	-10.5335
▁suburb	-10.5336
▁publisher	-10.5339
▁mobile	-10.5339
cap	-10.5339
▁Rob	-10.5343
▁concerns	-10.5346
lk	-10.5347
▁39	-10.5352
sol	-10.5355
▁prime	-10.5355
97	-10.5358
▁Zo	-10.5366
▁sand	-10.5367
hara	-10.5368
ori	-10.5368
▁Imperial	-10.5369
nny	-10.537
▁Railroad	-10.5371
▁Finland	-10.5374
▁factors	-10.5375
▁stayed	-10.5375
▁44	-10.5378
arch	-10.5383
▁owners	-10.5384
▁adapted	-10.5385
▁Kennedy	-10.5386
▁Even	-10.5392
▁passengers	-10.5395
":	-10.5409
▁stages	-10.541
▁Children	-10.5411
▁covering	-10.5411
Sha	-10.5412
▁bid	-10.5414
▁weekly	-10.5415
▁Saturday	-10.5415
▁ownership	-10.5416
▁roads	-10.5416
▁signing	-10.5417
▁talent	-10.5419
▁Space	-10.5425
mel	-10.5426
▁Global	-10.5427
▁Only	-10.5428
▁1998,	-10.5428
present	-10.5435
ars	-10.5438
▁equivalent	-10.5441
▁Malaysia	-10.5441
▁1880	-10.5446
▁artistic	-10.5449
▁Allen	-10.5456
▁Front	-10.546
high	-10.546
▁task	-10.546
▁perfect	-10.5466
▁southwest	-10.5467
lf	-10.547
▁involving	-10.5476
▁worth	-10.5476
▁150	-10.5477
–2	-10.5478
▁flows	-10.5484
▁Lincoln	-10.5486
$	-10.5486
▁electoral	-10.5487
▁Constitution	-10.5489
▁elevation	-10.5499
▁express	-10.5502
bur	-10.5503
SL	-10.5504
▁Palace	-10.5511
where	-10.5514
▁bad	-10.5514
▁defence	-10.5517
via	-10.5523
▁athletes	-10.5525
▁Orchestra	-10.5526
▁intelligence	-10.5527
▁tunnel	-10.5528
▁pitch	-10.5531
▁auto	-10.5532
▁uniform	-10.5534
▁intention	-10.5536
▁Way	-10.5537
▁y	-10.5538
▁cent	-10.5538
▁monument	-10.5539
▁See	-10.5543
final	-10.5546
▁Oklahoma	-10.5546
▁filed	-10.5547
▁significantly	-10.5549
▁spirit	-10.5556
heim	-10.5557
lio	-10.556
▁link	-10.5561
▁Vienna	-10.5573
▁Gre	-10.5575
Ko	-10.5576
▁sentence	-10.5577
ili	-10.5582
▁chapel	-10.5585
▁2003.	-10.5586
▁safe	-10.5586
▁ra	-10.5587
▁string	-10.5588
fect	-10.5588
▁Silver	-10.5589
▁fired	-10.5591
▁inhabitants	-10.5594
HL	-10.5594
▁Seattle	-10.5595
▁designs	-10.5598
▁Pur	-10.5601
▁policies	-10.5601
▁southeast	-10.5602
▁tie	-10.5602
▁aspects	-10.5603
▁Frederick	-10.5608
▁wine	-10.5611
Gra	-10.5612
▁tropical	-10.5614
▁Gil	-10.5616
AP	-10.5616
▁subjects	-10.5617
▁Lang	-10.5618
▁hot	-10.5621
▁wave	-10.5622
ches	-10.5622
▁Morgan	-10.5628
▁separated	-10.5629
▁Anderson	-10.5633
▁competing	-10.5633
bla	-10.5635
hand	-10.5636
▁Ac	-10.564
▁Wal	-10.564
▁Douglas	-10.5642
98	-10.5643
hir	-10.5645
▁Garden	-10.5645
▁amateur	-10.5645
AM	-10.5646
ison	-10.5646
▁Several	-10.5647
▁Studios	-10.5652
▁1901	-10.5657
▁cousin	-10.5657
▁feel	-10.5661
▁competitions	-10.5662
cat	-10.5662
eli	-10.5663
▁Gr	-10.5664
weight	-10.5668
vor	-10.567
▁Sk	-10.567
▁naval	-10.5673
▁dispute	-10.5673
▁Now	-10.5685
▁achieve	-10.5686
▁popularity	-10.5688
▁str	-10.569
▁studying	-10.5694
▁possession	-10.5694
▁coverage	-10.5694
94	-10.5696
PS	-10.5699
▁mark	-10.5711
▁Upon	-10.5713
▁Ryan	-10.5713
▁soundtrack	-10.5716
▁trust	-10.572
sie	-10.5725
▁suggests	-10.5726
▁shut	-10.5726
▁65	-10.5727
▁Juan	-10.5732
▁Basketball	-10.5734
▁difference	-10.5735
▁Margaret	-10.5738
▁wooden	-10.5738
▁Iraq	-10.5739
▁Hungarian	-10.5744
▁Trade	-10.5745
pra	-10.5745
ome	-10.5748
▁fort	-10.5752
▁Disney	-10.5753
▁measure	-10.5755
▁Market	-10.5758
▁gift	-10.5761
▁Mission	-10.5765
▁1904	-10.5772
▁purposes	-10.5774
▁flowers	-10.5776
adi	-10.5779
chin	-10.5781
later	-10.5781
▁truck	-10.5782
▁Samuel	-10.5782
▁Bangladesh	-10.5784
▁Portugal	-10.579
▁heritage	-10.579
▁grave	-10.5792
▁Cook	-10.5796
hol	-10.58
▁guitarist	-10.5801
▁AD	-10.5801
02	-10.5803
lane	-10.5806
▁nomination	-10.5812
▁arm	-10.5812
▁factor	-10.5813
▁2021	-10.5814
▁ABC	-10.5815
▁weekend	-10.5817
rim	-10.5818
▁schedule	-10.5818
▁option	-10.5824
▁sum	-10.5824
▁nor	-10.5825
-4	-10.5827
▁mouth	-10.5828
▁Colonel	-10.5831
▁Defense	-10.5834
AT	-10.5834
▁Judge	-10.5836
▁returns	-10.5838
▁net	-10.5848
▁assembly	-10.5849
cin	-10.5853
Col	-10.5854
West	-10.5855
▁1902	-10.5855
And	-10.5856
ters	-10.5856
tics	-10.5856
yu	-10.5859
put	-10.5859
ult	-10.5861
▁Hills	-10.5861
▁stress	-10.5861
▁requirements	-10.5865
unk	-10.587
▁helping	-10.5873
lot	-10.5877
▁appearing	-10.588
▁orchestra	-10.5883
▁turns	-10.5889
ging	-10.5892
▁prisoners	-10.5892
▁eleven	-10.5895
anga	-10.5897
▁touch	-10.5897
agh	-10.5898
▁weak	-10.5898
hall	-10.5898
▁dated	-10.5905
▁domain	-10.5908
▁bay	-10.5909
▁chamber	-10.5911
lim	-10.5911
Two	-10.5912
▁mean	-10.5915
Source	-10.5916
ough	-10.5917
▁cat	-10.5923
▁shore	-10.5924
▁Agency	-10.5924
tum	-10.5925
under	-10.5925
▁Internet	-10.5927
▁2001.	-10.5931
▁Connecticut	-10.5931
inger	-10.5932
▁childhood	-10.5934
abad	-10.5936
May	-10.5938
▁leads	-10.5939
▁2000.	-10.5943
▁capable	-10.5945
▁universities	-10.5949
PR	-10.5951
tting	-10.5952
▁Lan	-10.5959
▁Jordan	-10.5963
▁proposal	-10.5964
rus	-10.5965
▁Atlanta	-10.5966
▁Fellow	-10.5971
▁convention	-10.5974
tti	-10.5975
▁bands	-10.5975
▁su	-10.5978
▁Las	-10.5986
▁Operation	-10.5987
cri	-10.5988
▁Antonio	-10.5989
▁formally	-10.5989
▁Fred	-10.5995
ddy	-10.5996
▁Heritage	-10.6006
▁teachers	-10.601
▁losses	-10.6012
▁Bull	-10.6013
olo	-10.6014
▁Round	-10.6015
▁processes	-10.6016
▁powers	-10.602
En	-10.6022
▁Bureau	-10.6023
▁Farm	-10.6025
▁tennis	-10.6026
▁concrete	-10.6027
▁message	-10.603
▁Bat	-10.603
▁resolution	-10.6031
▁Pol	-10.6032
nc	-10.6037
ost	-10.6038
▁dog	-10.604
▁segment	-10.6047
▁venture	-10.6047
▁Matthew	-10.6049
▁Iron	-10.605
Tri	-10.605
▁Masovian	-10.6054
omb	-10.6055
▁contested	-10.6055
▁Gal	-10.6056
▁epi	-10.6059
▁scholarship	-10.606
Com	-10.6061
▁wild	-10.6061
▁(4	-10.6062
▁routes	-10.6064
▁Mass	-10.6065
▁stretch	-10.6065
Pi	-10.6065
▁sort	-10.6069
▁1903	-10.607
▁twin	-10.607
▁strategy	-10.6071
▁Delhi	-10.6071
▁patent	-10.6071
▁Hart	-10.6073
▁vision	-10.6074
include	-10.6075
▁Chamber	-10.6078
▁1997,	-10.6079
▁Zi	-10.6084
▁Euro	-10.6089
▁Birmingham	-10.6093
▁Ji	-10.6095
▁thousands	-10.6101
▁1996,	-10.6102
▁Les	-10.6103
▁erected	-10.6104
▁select	-10.6104
hor	-10.6109
▁architectural	-10.6111
▁Fre	-10.6112
▁rival	-10.6113
▁finding	-10.6123
▁edited	-10.6124
Cha	-10.6125
▁Age	-10.6125
zon	-10.6125
▁Cathedral	-10.6126
▁cited	-10.6126
▁manner	-10.6128
▁otherwise	-10.6128
▁parent	-10.6128
▁Express	-10.6129
1,	-10.613
▁eighth	-10.613
Family	-10.6134
▁actors	-10.6135
▁load	-10.6138
▁Sarah	-10.614
▁Mississippi	-10.614
▁cha	-10.6143
nate	-10.6146
National	-10.6147
▁examples	-10.6148
▁Key	-10.6149
▁Anthony	-10.6156
▁Convention	-10.6158
▁Shar	-10.6159
▁technique	-10.616
▁relief	-10.6161
ites	-10.6163
▁circle	-10.6167
▁earning	-10.6173
▁stem	-10.6176
▁thirty	-10.6177
from	-10.6178
▁argument	-10.6178
▁persons	-10.618
▁Pop	-10.6181
ition	-10.6182
Te	-10.6183
▁satellite	-10.6188
▁Rick	-10.6191
▁completion	-10.6195
▁medals	-10.6195
▁debt	-10.6197
pic	-10.6199
▁expect	-10.6201
▁explained	-10.6202
▁extremely	-10.6204
▁Township	-10.6205
▁fi	-10.6207
dent	-10.6207
If	-10.6207
▁1870	-10.621
▁adding	-10.6213
rated	-10.6214
▁Alliance	-10.622
▁fixed	-10.6222
bach	-10.6223
▁dream	-10.6224
▁relative	-10.6225
▁females	-10.6225
▁Puerto	-10.6225
▁testing	-10.6226
▁replacing	-10.6231
een	-10.6231
▁Nova	-10.6236
▁Modern	-10.6239
▁Unit	-10.624
▁falls	-10.624
50,000	-10.6241
▁protected	-10.6242
▁rescue	-10.6243
▁cinema	-10.6243
▁Dance	-10.6243
cip	-10.625
World	-10.6256
▁DC	-10.6266
▁Additionally	-10.6269
dri	-10.627
▁ju	-10.6271
▁linked	-10.6274
▁Shu	-10.6274
▁planet	-10.6276
▁Gulf	-10.6277
▁par	-10.6278
▁Islam	-10.6279
CO	-10.6279
▁survive	-10.628
▁Commissioner	-10.6282
▁indicated	-10.6285
▁document	-10.6285
RI	-10.6288
▁1995,	-10.629
▁r	-10.6292
▁chapter	-10.6294
rang	-10.6296
▁degrees	-10.6298
▁filled	-10.63
OS	-10.6305
gor	-10.6311
▁carbon	-10.6317
▁ruling	-10.6322
▁column	-10.6324
▁Cleveland	-10.6325
▁Whit	-10.6327
▁entering	-10.633
▁manufacturing	-10.6331
AS	-10.6335
▁solution	-10.6335
cut	-10.6336
sson	-10.6338
chy	-10.6341
▁Lawrence	-10.6342
▁courts	-10.6346
▁fly	-10.635
mination	-10.635
▁participation	-10.6351
ij	-10.6352
had	-10.6353
▁devices	-10.6355
▁protein	-10.6355
Lu	-10.636
▁defending	-10.636
even	-10.636
2)	-10.6364
fire	-10.6366
▁pale	-10.6366
sburg	-10.6367
▁Buck	-10.637
▁52	-10.6373
▁temporary	-10.6373
▁involvement	-10.6375
▁branches	-10.6377
▁concentration	-10.6377
▁tied	-10.6379
shaped	-10.6382
ically	-10.6382
▁huge	-10.6385
serv	-10.6389
▁objective	-10.639
table	-10.6396
▁ne	-10.6398
Mon	-10.6398
▁suicide	-10.64
▁DNA	-10.6401
uring	-10.6401
▁males	-10.6404
▁islands	-10.6407
▁donated	-10.6407
▁struck	-10.6408
▁Romanized	-10.6409
▁sculpture	-10.6409
▁Ran	-10.6411
▁balance	-10.6414
▁celebrated	-10.6415
Sc	-10.6419
AF	-10.6421
press	-10.6423
mid	-10.6425
▁Marie	-10.6425
SU	-10.6425
▁colonial	-10.6426
Wa	-10.6427
▁SR	-10.6428
round	-10.6431
▁Ur	-10.6432
ender	-10.6432
;/	-10.6432
92	-10.6433
ened	-10.6435
▁tell	-10.6435
▁differences	-10.6438
face	-10.644
▁eliminated	-10.6447
▁compilation	-10.6453
FL	-10.6458
▁surrounded	-10.646
rah	-10.646
lea	-10.6467
▁posted	-10.647
▁craft	-10.6473
rey	-10.6474
▁buy	-10.6481
Most	-10.6481
▁duo	-10.6482
▁Bengal	-10.6483
sar	-10.6484
▁boundary	-10.6484
▁happened	-10.6484
▁reputation	-10.6486
▁infrastructure	-10.6488
new	-10.6489
▁moment	-10.6492
▁Champion	-10.6494
Ad	-10.6494
▁strongly	-10.6495
▁Kon	-10.6495
▁pioneer	-10.6498
South	-10.6499
▁drew	-10.65
▁note	-10.6501
▁Medicine	-10.6501
▁drawing	-10.6503
▁64	-10.6505
▁Energy	-10.6511
▁hearing	-10.6511
▁vessel	-10.6512
▁secure	-10.6514
▁suspended	-10.6517
▁influential	-10.6519
▁banks	-10.6523
▁Sil	-10.6523
▁regime	-10.6523
▁Op	-10.6525
cept	-10.6526
zan	-10.6526
▁denied	-10.6532
▁Census	-10.6533
Best	-10.6533
▁Tele	-10.6534
▁Welsh	-10.6535
▁favour	-10.6536
▁alleged	-10.6538
▁Oblast	-10.6539
▁whilst	-10.6541
▁Louisiana	-10.6541
German	-10.6547
▁components	-10.655
Ni	-10.6556
tive	-10.6559
▁accounts	-10.6559
▁homes	-10.6562
▁Metropolitan	-10.6563
▁Hungary	-10.6565
▁perhaps	-10.6567
col	-10.6567
Sp	-10.6567
ED	-10.6569
▁43	-10.6582
asi	-10.6587
itor	-10.659
▁tube	-10.6596
▁Bachelor	-10.6597
▁questions	-10.6598
▁terminal	-10.6599
sign	-10.66
person	-10.6602
cli	-10.6602
▁roughly	-10.6602
▁Ry	-10.6603
NC	-10.6603
▁daughters	-10.6605
▁collections	-10.6607
▁grey	-10.6608
▁Moon	-10.6609
onia	-10.661
▁Capital	-10.661
▁Alan	-10.661
▁Ap	-10.6611
▁dynasty	-10.6611
▁acted	-10.6611
▁penalty	-10.6622
▁output	-10.6626
▁Authority	-10.6629
▁Tower	-10.663
▁equipped	-10.6633
take	-10.6634
Hu	-10.6635
rill	-10.6636
▁cable	-10.6637
Results	-10.6637
▁doctor	-10.6639
▁practices	-10.6645
▁streets	-10.6645
▁approval	-10.6646
▁Syria	-10.6649
pol	-10.6649
▁humans	-10.6651
née	-10.6654
▁Yorkshire	-10.6655
▁diameter	-10.6657
plo	-10.6658
▁controversial	-10.6658
SR	-10.666
▁Crown	-10.666
▁Six	-10.6664
gger	-10.6664
▁spiritual	-10.6667
▁annually	-10.6668
vil	-10.6668
▁shoot	-10.667
arian	-10.6671
▁decline	-10.6674
▁definition	-10.6679
▁participants	-10.6681
▁declined	-10.6685
▁51	-10.6686
▁artillery	-10.6691
[	-10.6702
▁spoke	-10.6707
ans	-10.6707
▁differ	-10.6707
▁skin	-10.6707
▁bringing	-10.6708
▁Bus	-10.671
▁competitive	-10.6715
SE	-10.6719
▁Jon	-10.6723
▁pan	-10.6725
▁Para	-10.6726
▁Nelson	-10.6728
93	-10.6729
▁Ay	-10.6731
ote	-10.6731
▁element	-10.6732
rry	-10.6735
▁crash	-10.6738
▁somewhat	-10.6739
bul	-10.674
vest	-10.6742
▁creative	-10.6743
▁NBA	-10.6744
▁Kelly	-10.6747
▁Information	-10.6748
pet	-10.6749
▁Villa	-10.6752
▁Egyptian	-10.6754
▁affairs	-10.6756
uf	-10.6758
–0	-10.6759
▁parliamentary	-10.6761
▁Bruce	-10.6761
jun	-10.6764
▁vocal	-10.6765
rac	-10.6766
▁choose	-10.6768
▁filmed	-10.6769
PC	-10.6769
▁Trophy	-10.6771
▁Thailand	-10.6771
▁Finnish	-10.6771
▁novels	-10.6772
try	-10.6773
iga	-10.6776
oke	-10.6778
▁55	-10.6779
cular	-10.6785
▁Gro	-10.6786
▁preparation	-10.6787
▁Bun	-10.679
▁riding	-10.6791
▁scholars	-10.6793
▁syn	-10.6793
▁Lou	-10.6794
far	-10.6794
▁Wei	-10.6795
▁poem	-10.68
▁medieval	-10.6801
▁affect	-10.6801
scale	-10.6802
ingham	-10.6807
▁Movement	-10.6808
▁gang	-10.6809
▁tail	-10.681
▁premiere	-10.681
▁grown	-10.6812
▁plus	-10.6815
▁Staff	-10.6817
▁coastal	-10.6819
War	-10.6827
▁wedding	-10.6828
▁Cla	-10.6828
▁controversy	-10.6828
▁Comp	-10.6829
▁experiences	-10.6831
▁Player	-10.6833
▁papers	-10.6837
▁audio	-10.6838
Si	-10.6839
▁physician	-10.684
▁CA	-10.6841
▁Im	-10.6841
▁Lanka	-10.6841
▁Mos	-10.6843
▁Liverpool	-10.6848
▁intersection	-10.6849
itch	-10.6852
▁genetic	-10.6853
91	-10.6855
game	-10.6858
▁veteran	-10.6859
83	-10.6859
▁Jane	-10.686
▁Lane	-10.6862
▁cm	-10.6865
ér	-10.6867
▁Wild	-10.6867
▁Place	-10.6869
▁Gall	-10.687
▁Labor	-10.6871
▁experiment	-10.6871
▁moral	-10.6872
▁rates	-10.6873
kha	-10.6877
cio	-10.6879
▁existed	-10.6879
gam	-10.6882
▁gene	-10.6884
▁installation	-10.6886
ook	-10.6887
▁Seven	-10.6888
▁Mun	-10.6888
▁construct	-10.6888
▁hits	-10.6892
▁forming	-10.6892
Pri	-10.6893
▁enjoy	-10.6894
▁Guinea	-10.6895
▁requires	-10.6897
▁trouble	-10.6899
tend	-10.6899
▁Stan	-10.6901
▁1994,	-10.6902
ander	-10.6902
▁Dave	-10.6904
▁charter	-10.6905
▁YouTube	-10.6906
▁meets	-10.6907
▁constant	-10.6909
▁Az	-10.6909
such	-10.691
▁Hampshire	-10.6919
▁assist	-10.6921
▁Peace	-10.6923
▁Race	-10.6927
DS	-10.693
iff	-10.6933
position	-10.6933
pop	-10.6934
▁Champions	-10.6936
ES	-10.6936
oy	-10.6938
▁throw	-10.694
RE	-10.6942
▁departure	-10.6944
▁someone	-10.6947
▁disorder	-10.6949
lect	-10.6951
▁tenure	-10.6951
CS	-10.6953
called	-10.6953
▁hosts	-10.6953
▁markets	-10.6956
▁aim	-10.6961
▁classification	-10.6967
▁1898	-10.6977
dol	-10.698
sure	-10.6981
▁Hard	-10.6983
▁Once	-10.6984
▁contribution	-10.699
lspan	-10.6992
hon	-10.6993
ald	-10.6994
▁considerable	-10.6997
▁error	-10.6999
▁Zone	-10.6999
cht	-10.7
nov	-10.7002
▁dress	-10.7002
▁conclusion	-10.7006
ule	-10.7007
Don	-10.7012
▁viewers	-10.7013
▁visitors	-10.7017
ME	-10.7018
pal	-10.7018
▁Jeff	-10.7019
▁Draft	-10.7025
▁surviving	-10.7026
▁1899	-10.7027
▁Brothers	-10.7031
▁cabinet	-10.7031
▁traveled	-10.7034
play	-10.7038
▁notice	-10.7039
▁|	-10.704
▁Des	-10.7043
▁Bro	-10.7045
▁lieutenant	-10.7046
▁Stock	-10.7047
ii	-10.7047
▁Morris	-10.705
▁cold	-10.7053
▁inaugural	-10.7054
▁Upper	-10.7054
illo	-10.7056
▁Training	-10.7056
▁Mai	-10.7059
itz	-10.7059
▁Mat	-10.7059
▁Organization	-10.7059
ify	-10.7062
▁downtown	-10.7064
▁1999.	-10.7065
▁suffering	-10.7066
▁47	-10.7068
▁surgery	-10.707
▁Mak	-10.707
Cor	-10.7071
▁eyes	-10.7072
MP	-10.7072
▁understand	-10.7074
ST	-10.7075
▁increasingly	-10.7075
▁entertainment	-10.7076
Ri	-10.7078
▁guide	-10.7081
▁Dream	-10.7082
▁transmission	-10.7083
▁Glasgow	-10.7084
vet	-10.7084
▁x	-10.7084
▁profile	-10.7085
▁Brook	-10.7086
▁appropriate	-10.7092
SP	-10.7095
▁venue	-10.7096
nna	-10.7102
▁passage	-10.7103
▁distinguished	-10.7103
▁diver	-10.7108
tical	-10.7113
▁Kin	-10.7113
▁demolished	-10.7115
pped	-10.7126
▁warm	-10.7129
▁Gate	-10.7129
hour	-10.713
▁Tech	-10.713
▁Mountains	-10.7131
▁radical	-10.7132
▁46	-10.7133
ao	-10.7135
▁(15	-10.7136
▁nations	-10.7136
▁obtain	-10.7137
▁Tal	-10.7137
ref	-10.7139
Ru	-10.7143
▁Baltimore	-10.7143
▁instruments	-10.7146
▁attracted	-10.7148
DP	-10.7148
▁Wolf	-10.7149
▁1896	-10.7151
▁Bush	-10.7154
▁uncle	-10.7156
rov	-10.7157
than	-10.7158
yne	-10.7161
▁earth	-10.7169
▁visiting	-10.717
ics	-10.7175
lit	-10.7175
▁Five	-10.7176
rel	-10.7178
▁households	-10.7181
shed	-10.7183
▁Utah	-10.7185
▁voting	-10.7193
▁Lower	-10.7201
▁executed	-10.7201
▁pursue	-10.7202
iva	-10.7205
▁MA	-10.7205
▁verse	-10.7206
▁Belgian	-10.7208
▁emergency	-10.7208
verse	-10.7209
boy	-10.7209
eau	-10.7214
▁lasted	-10.7215
▁Bou	-10.7218
sti	-10.7218
▁Taiwan	-10.7219
pat	-10.7224
▁ratio	-10.7227
view	-10.7231
MC	-10.7232
▁ruler	-10.7232
▁youngest	-10.7232
▁attorney	-10.7236
BC	-10.7241
▁Theater	-10.7241
▁charts	-10.7243
▁Karl	-10.7248
Art	-10.7249
▁hope	-10.725
▁jurisdiction	-10.7253
▁continuing	-10.7256
▁portrayed	-10.7256
▁Auto	-10.7257
▁rounds	-10.726
morph	-10.727
uz	-10.7273
▁marry	-10.7276
▁Milan	-10.7278
▁frequent	-10.7278
hop	-10.7278
pla	-10.7282
▁Madrid	-10.7283
▁1860	-10.7286
_2	-10.7288
▁advertising	-10.7289
ridge	-10.7292
▁alcohol	-10.7296
wn	-10.73
▁Tam	-10.73
▁vessels	-10.73
▁Fer	-10.7302
▁jobs	-10.7303
▁fer	-10.7306
▁Native	-10.7308
▁recommended	-10.7312
▁proper	-10.7314
▁Portland	-10.7315
▁Your	-10.7316
▁rated	-10.7317
profit	-10.732
▁minimum	-10.7321
IN	-10.7325
▁wickets	-10.7326
▁agencies	-10.7328
▁Serbian	-10.7329
▁tools	-10.7331
▁fill	-10.7332
dam	-10.7332
char	-10.7334
▁Ana	-10.7335
gre	-10.7335
▁Local	-10.7335
vit	-10.7336
▁underground	-10.7337
▁acquisition	-10.7338
▁convert	-10.7338
▁Standard	-10.734
▁el	-10.7341
2,	-10.7343
finals	-10.7344
▁amongst	-10.7347
▁Hunt	-10.7348
▁maintenance	-10.7359
▁roll	-10.7361
▁(),	-10.7362
Cl	-10.7364
▁fifteen	-10.7365
wen	-10.7366
▁patrol	-10.7369
▁Early	-10.737
▁Em	-10.7373
▁Thompson	-10.7374
logical	-10.7375
▁Baker	-10.7379
▁Wing	-10.738
▁god	-10.7381
rock	-10.7385
▁treated	-10.7388
▁platforms	-10.7389
▁Russell	-10.7391
▁Pittsburgh	-10.7392
Ph	-10.7397
related	-10.74
▁everything	-10.74
▁authors	-10.7407
▁Kevin	-10.7408
osa	-10.7411
uli	-10.7425
▁massive	-10.7426
▁Pass	-10.7433
▁soccer	-10.7437
▁stable	-10.7437
▁cancelled	-10.7437
▁noble	-10.7438
▁Limited	-10.744
▁variable	-10.7448
▁1993,	-10.745
▁beautiful	-10.7452
▁1992,	-10.7453
ential	-10.7453
gli	-10.7455
▁1897	-10.7458
▁Wy	-10.746
▁preserved	-10.746
▁thick	-10.7462
▁injuries	-10.7464
itt	-10.7468
▁mar	-10.7474
▁pit	-10.7476
▁Austin	-10.7477
OC	-10.7485
▁Fine	-10.7485
▁Penn	-10.7488
ush	-10.7489
western	-10.749
▁Rich	-10.749
▁modified	-10.7494
▁preserve	-10.75
▁demo	-10.7501
▁Glen	-10.7503
▁Brooklyn	-10.7504
umb	-10.7505
▁wrong	-10.7511
feld	-10.7512
▁Knight	-10.7516
FM	-10.7516
▁knew	-10.7519
▁widow	-10.752
▁Oak	-10.7521
▁correct	-10.7523
▁cal	-10.7526
▁Bol	-10.7527
▁pin	-10.753
sis	-10.7531
▁experimental	-10.7532
▁abroad	-10.7533
▁Socialist	-10.7533
▁Campbell	-10.7533
▁tape	-10.7535
▁changing	-10.7537
▁sing	-10.7543
▁profit	-10.7544
rip	-10.7544
▁infantry	-10.7545
▁desire	-10.7545
pass	-10.7545
–4	-10.7545
night	-10.7549
▁false	-10.7554
▁restoration	-10.7554
▁Stra	-10.7557
▁activist	-10.7558
▁ride	-10.7561
▁spending	-10.7562
post	-10.7564
▁Arena	-10.7564
ema	-10.7567
▁Adams	-10.7567
▁Ron	-10.7568
▁concern	-10.7572
▁gay	-10.7574
▁affiliated	-10.7577
▁visible	-10.7578
une	-10.7579
ante	-10.7582
cro	-10.7584
▁Pla	-10.7586
▁neuro	-10.7587
kel	-10.7592
▁+	-10.7592
wal	-10.7592
▁attributed	-10.7593
▁concerned	-10.7594
▁alliance	-10.7595
▁angle	-10.7602
▁reporter	-10.7603
–7	-10.7604
tract	-10.7606
▁external	-10.7606
rag	-10.7606
▁liberal	-10.7606
▁1000	-10.7609
These	-10.761
▁Wu	-10.761
▁Back	-10.761
▁ago	-10.7611
▁instrumental	-10.7616
▁toured	-10.7617
▁Alfred	-10.7621
rell	-10.7621
▁afterwards	-10.7628
bol	-10.7628
▁remainder	-10.7631
▁championships	-10.7632
▁conservative	-10.7632
▁birds	-10.7634
▁categories	-10.7635
▁commented	-10.7636
▁marketing	-10.7639
▁facing	-10.7639
▁anything	-10.7644
rr	-10.7647
▁behalf	-10.7648
▁runner	-10.7648
▁ideal	-10.7648
sex	-10.7651
▁Orthodox	-10.7653
▁Dallas	-10.7655
▁fun	-10.7655
▁Donald	-10.7656
▁Arkansas	-10.7657
▁Bernard	-10.766
▁rapid	-10.7661
▁liquid	-10.7663
IP	-10.7665
Che	-10.7666
▁Stewart	-10.7666
Ber	-10.7668
▁die	-10.7668
–5	-10.7671
▁serial	-10.7672
▁snow	-10.7676
▁soul	-10.7678
▁EU	-10.7679
▁illness	-10.7681
▁Kid	-10.7682
▁effectively	-10.7683
▁pack	-10.7683
▁exhibited	-10.7684
▁customers	-10.7685
▁Met	-10.7687
phy	-10.7687
–1	-10.7689
▁celebration	-10.769
▁Carter	-10.7694
▁Broadway	-10.7694
▁Lor	-10.7694
▁regard	-10.7695
▁asks	-10.7696
▁opportunities	-10.7698
▁businessman	-10.7698
▁employment	-10.7699
▁gl	-10.7707
▁Bha	-10.7708
▁adventure	-10.7709
▁UEFA	-10.7709
▁package	-10.771
▁gone	-10.7711
Time	-10.7715
Ti	-10.7719
mobil	-10.7719
▁begun	-10.772
However	-10.7723
gri	-10.7723
horn	-10.7725
▁Baron	-10.7731
▁Season	-10.7732
▁Roll	-10.7735
▁locomotives	-10.7735
▁earn	-10.7735
▁PC	-10.7736
▁missed	-10.7739
▁fit	-10.7743
CE	-10.7745
▁recipient	-10.7746
▁Maine	-10.7747
▁fishing	-10.7748
▁apart	-10.7748
▁Dick	-10.7749
▁finance	-10.775
boat	-10.775
▁sentenced	-10.775
▁submarine	-10.7751
▁horses	-10.7753
▁beach	-10.7754
▁Math	-10.7754
▁Tr	-10.7754
▁shares	-10.7755
minute	-10.7756
▁Fri	-10.7762
▁Greg	-10.7767
▁absence	-10.7774
▁relocated	-10.7776
nn	-10.7777
II	-10.7779
▁aimed	-10.7781
▁Works	-10.7783
▁wa	-10.7785
▁Fr	-10.7785
▁Vel	-10.7788
elected	-10.7789
▁Vancouver	-10.779
▁1895	-10.779
▁Murray	-10.7791
3)	-10.7791
ware	-10.7793
▁Ward	-10.7794
▁printed	-10.7794
hard	-10.7794
▁widespread	-10.7797
▁1991,	-10.7798
▁operational	-10.7799
▁cemetery	-10.78
▁insurance	-10.7802
▁reportedly	-10.7802
▁cor	-10.7807
▁tu	-10.7807
▁bell	-10.7808
ked	-10.781
▁Jerusalem	-10.7811
▁attending	-10.7812
▁Grade	-10.7812
ssel	-10.7813
▁occasions	-10.7814
life	-10.7816
▁counties	-10.7817
phe	-10.7818
Can	-10.7818
▁commanded	-10.7818
CT	-10.7819
▁Gun	-10.782
ress	-10.782
▁Ce	-10.7821
▁wants	-10.7822
▁mix	-10.7822
struct	-10.7822
▁1893	-10.7823
▁José	-10.7823
udi	-10.7824
▁patient	-10.7834
▁Nar	-10.7842
▁SA	-10.7843
▁scholar	-10.7843
▁qualification	-10.7843
▁picked	-10.7845
uma	-10.7848
DC	-10.7849
▁Vin	-10.7851
▁supplies	-10.7858
Du	-10.7862
▁Lea	-10.7866
eller	-10.7867
▁Bir	-10.7868
▁Rat	-10.7868
▁shelter	-10.7869
▁CBS	-10.787
,500	-10.7872
▁claiming	-10.7873
oh	-10.7874
▁emerged	-10.7876
▁Wright	-10.7877
▁Len	-10.7877
ways	-10.7878
▁export	-10.7879
▁Wind	-10.7879
▁sponsored	-10.7884
▁worship	-10.7885
▁Row	-10.7885
making	-10.7886
cell	-10.7886
▁Roy	-10.7888
Professional	-10.7895
▁representatives	-10.7896
away	-10.7898
▁NBC	-10.7898
CI	-10.7899
▁Monte	-10.7904
▁copy	-10.7909
▁Sy	-10.7911
▁Hai	-10.7917
power	-10.7919
▁transportation	-10.7922
▁Evans	-10.7923
Mor	-10.7925
▁encourage	-10.7925
ui	-10.7927
▁Brisbane	-10.7928
▁threatened	-10.793
▁characteristics	-10.7932
▁Jar	-10.7935
▁Cricket	-10.7937
▁Municipality	-10.7945
▁thing	-10.7946
▁mile	-10.7947
zar	-10.7948
ids	-10.7958
ović	-10.796
▁Mol	-10.7961
▁faith	-10.7962
▁Meanwhile	-10.7965
▁initiative	-10.7967
Release	-10.7968
Post	-10.7968
ía	-10.7972
ats	-10.7972
▁Robinson	-10.7972
▁timber	-10.7976
▁turning	-10.7978
▁organised	-10.7978
▁Pala	-10.7978
▁outbreak	-10.798
▁recordings	-10.7983
▁videos	-10.7985
uni	-10.7987
▁lap	-10.7987
▁Mrs	-10.7992
▁Iranian	-10.7992
▁Dal	-10.7992
Ge	-10.7993
▁Economic	-10.7993
idi	-10.7994
▁highlight	-10.7995
▁immediate	-10.7997
ello	-10.7998
language	-10.7999
▁corporate	-10.8
▁recovered	-10.8001
▁soft	-10.8002
▁Defence	-10.8003
SI	-10.8004
▁unusual	-10.8004
Another	-10.8008
ode	-10.8008
▁1998.	-10.8013
comp	-10.8018
▁Culture	-10.8018
nam	-10.802
rad	-10.8021
Out	-10.8022
kins	-10.8023
▁funded	-10.8023
▁gr	-10.8025
▁Andy	-10.8026
RT	-10.8027
▁spoken	-10.8028
-10	-10.8029
▁bat	-10.8034
Many	-10.8038
▁Graham	-10.8039
▁Stanley	-10.8039
▁Nigeria	-10.8039
▁supporters	-10.8041
▁remove	-10.8041
▁practical	-10.8043
Black	-10.8045
▁decides	-10.8045
▁Classic	-10.8046
tine	-10.8047
▁Cast	-10.8048
Under	-10.8052
▁PhD	-10.8055
etic	-10.8058
▁Carr	-10.806
▁Who	-10.8066
▁longest	-10.8068
dro	-10.8069
cum	-10.8075
duc	-10.8075
▁hero	-10.8076
▁wheel	-10.8078
his	-10.8079
):	-10.8082
▁merger	-10.8082
▁belonged	-10.8083
▁percentage	-10.8083
▁Romanian	-10.8084
▁everyone	-10.8085
▁researchers	-10.8085
▁cards	-10.8086
▁trading	-10.8086
▁sat	-10.8086
▁Gan	-10.8087
zen	-10.8088
any	-10.8089
▁subsidiary	-10.809
▁movements	-10.8092
hel	-10.8094
▁beetle	-10.8095
▁newspapers	-10.8097
Fe	-10.8099
▁Peru	-10.81
▁Horn	-10.8101
ito	-10.8104
▁Canal	-10.8105
ull	-10.8108
▁ninth	-10.811
▁identify	-10.811
▁clinical	-10.8112
-17	-10.8114
▁Urban	-10.8114
▁Instead	-10.8115
▁Model	-10.8116
▁Call	-10.8118
▁roster	-10.8118
▁Kir	-10.8122
▁Sara	-10.8122
▁Syrian	-10.8123
▁Maha	-10.8124
tsu	-10.8124
▁friendly	-10.8126
▁brigade	-10.8128
▁grandfather	-10.8129
sect	-10.813
▁rapidly	-10.8131
▁advocate	-10.8134
▁focuses	-10.8134
▁meetings	-10.8134
cast	-10.8136
▁gra	-10.8138
posed	-10.8142
▁Qui	-10.8144
Je	-10.8145
▁integrated	-10.8145
▁dismissed	-10.8146
▁blocks	-10.8147
▁Serbia	-10.8148
▁palace	-10.8153
▁beating	-10.8154
▁occasionally	-10.8155
▁incumbent	-10.8157
rom	-10.8159
▁apartment	-10.816
▁outer	-10.8161
▁protests	-10.8162
▁Work	-10.8164
▁truth	-10.8165
▁revolution	-10.8166
▁repair	-10.8167
▁doesn	-10.8169
▁defender	-10.8174
▁54	-10.8177
▁thin	-10.8177
AN	-10.8185
▁implementation	-10.8185
▁Mau	-10.8187
▁Marshall	-10.8188
▁romantic	-10.8188
▁writes	-10.819
▁steal	-10.8194
▁kingdom	-10.8195
ET	-10.8196
▁Sultan	-10.8198
▁conservation	-10.82
▁petition	-10.8206
mun	-10.8208
▁Windows	-10.8208
▁detailed	-10.8208
▁Romania	-10.8214
▁Orleans	-10.8215
▁strategic	-10.8217
pul	-10.8219
▁1885	-10.8219
3.	-10.8224
–17	-10.8228
rig	-10.8229
aria	-10.8229
▁fa	-10.8229
▁thousand	-10.8231
Ke	-10.8232
▁vs	-10.8232
▁legend	-10.8234
▁processing	-10.8236
▁inner	-10.8239
▁tip	-10.8241
▁Norman	-10.8244
▁op	-10.8244
kal	-10.8245
▁Assistant	-10.8246
▁belonging	-10.8248
▁Plant	-10.8254
▁interpretation	-10.8255
▁lists	-10.8255
▁assets	-10.8255
-20	-10.8256
▁encounter	-10.8256
▁describe	-10.8256
▁junction	-10.8257
▁narrative	-10.8257
zza	-10.8258
▁ocean	-10.8262
▁Azerbaijan	-10.8263
rup	-10.8267
▁salt	-10.8268
ancy	-10.8268
▁Singles	-10.8268
▁tea	-10.8269
▁Kha	-10.827
▁Gray	-10.8272
▁exit	-10.8275
▁labour	-10.8275
▁encouraged	-10.8275
front	-10.8277
▁directors	-10.8277
▁component	-10.8279
▁Richmond	-10.8282
▁Kur	-10.8282
team	-10.8282
▁reduction	-10.8284
▁monastery	-10.8288
▁Rhode	-10.8289
fur	-10.829
▁coalition	-10.8291
Sch	-10.8293
oper	-10.8293
Political	-10.8293
▁1997.	-10.8295
▁expand	-10.8297
▁mention	-10.8299
cover	-10.8301
▁portrait	-10.8301
▁1,000	-10.8303
lash	-10.8303
eck	-10.8304
200	-10.8305
RS	-10.8306
▁relation	-10.8307
py	-10.8307
▁occasion	-10.8309
▁depending	-10.8309
made	-10.831
▁Jam	-10.8311
▁Fleet	-10.8314
▁predecessor	-10.8314
rio	-10.8314
ement	-10.8316
▁publicly	-10.8317
▁Baptist	-10.8317
▁pain	-10.8319
nell	-10.832
CD	-10.8321
North	-10.8323
▁Kor	-10.8323
▁COVID	-10.8324
▁Chan	-10.8324
▁Obama	-10.8332
▁whereas	-10.8335
nica	-10.8336
▁hole	-10.834
▁charity	-10.8341
▁ready	-10.8343
▁Ang	-10.8343
▁teammate	-10.8345
shan	-10.8347
▁Hawaii	-10.8347
▁Base	-10.835
▁Pradesh	-10.835
Min	-10.8351
▁household	-10.8351
DF	-10.8353
▁1894	-10.8354
▁greatly	-10.8359
fish	-10.8359
▁cargo	-10.836
▁Rh	-10.836
aceae	-10.8363
SD	-10.8363
▁gradually	-10.8365
▁enjoyed	-10.8366
▁spend	-10.8366
▁dynamic	-10.8368
▁Racing	-10.837
▁smooth	-10.837
▁Pad	-10.837
▁Rama	-10.8374
▁peer	-10.8376
sum	-10.8376
▁discovery	-10.8377
▁Trinity	-10.8378
▁FIFA	-10.8386
▁pri	-10.8386
▁secured	-10.8387
▁sight	-10.8387
▁Beck	-10.8391
kes	-10.8395
HA	-10.8395
▁Chile	-10.8395
arrow	-10.8399
2014	-10.8402
▁Challenge	-10.8402
▁1892	-10.8404
▁Hans	-10.8405
▁delay	-10.8405
vie	-10.8406
chu	-10.8406
▁canal	-10.8407
▁fur	-10.8412
▁download	-10.8413
▁DJ	-10.8415
▁golf	-10.8415
▁(5	-10.8416
▁Natural	-10.8416
▁electro	-10.8417
▁perspective	-10.8417
late	-10.8421
▁holiday	-10.8422
▁Roger	-10.8423
▁deliver	-10.8425
▁volunteer	-10.8427
▁implemented	-10.8427
▁Code	-10.8432
ket	-10.8439
▁plain	-10.8441
▁descent	-10.8442
▁1989,	-10.8445
▁hundreds	-10.8446
▁resident	-10.8446
▁partners	-10.8453
quest	-10.8455
▁Through	-10.8457
High	-10.8457
tier	-10.8457
▁Liga	-10.8458
▁Honor	-10.8459
owned	-10.8459
▁Borough	-10.8461
▁Confederate	-10.8461
▁responded	-10.8462
▁wrestling	-10.8464
▁civilian	-10.8466
Tra	-10.8467
▁Manhattan	-10.8467
See	-10.8469
load	-10.847
▁Control	-10.8474
▁inspiration	-10.8474
IT	-10.8474
ject	-10.8475
ree	-10.8478
▁emotional	-10.8481
▁Sto	-10.8483
lton	-10.8483
▁Warren	-10.8484
nut	-10.8486
▁1996.	-10.8486
▁agriculture	-10.8486
hab	-10.8488
▁ga	-10.8489
▁congregation	-10.8489
▁Cer	-10.849
▁sample	-10.8492
ashi	-10.8495
▁drafted	-10.8495
Film	-10.8496
▁spell	-10.8496
▁Pin	-10.8496
▁wet	-10.8499
▁useful	-10.8499
°	-10.8501
▁completing	-10.8502
▁easy	-10.8504
clu	-10.8505
▁judges	-10.8509
hat	-10.851
Ver	-10.8511
▁Wrestling	-10.8513
PI	-10.8513
▁earthquake	-10.8515
▁56	-10.8517
▁carrier	-10.8519
▁Transport	-10.852
hang	-10.8525
2010	-10.8527
▁1889	-10.8529
▁gastropod	-10.8529
▁photography	-10.853
▁Roo	-10.853
▁Beijing	-10.8531
▁volumes	-10.8534
▁Notable	-10.8536
▁bound	-10.8536
▁Chu	-10.8537
ensis	-10.8537
▁inscription	-10.8539
▁Section	-10.854
TE	-10.854
▁concerts	-10.854
eur	-10.8541
▁Bru	-10.8543
▁opponents	-10.8543
▁characterized	-10.8544
▁listen	-10.8544
▁airline	-10.8546
died	-10.8549
▁mathematics	-10.8551
▁Fra	-10.8553
▁cave	-10.8554
phil	-10.8559
▁manuscript	-10.8561
▁conversion	-10.8563
▁extent	-10.8564
▁discipline	-10.8565
▁institute	-10.8565
▁Box	-10.8566
▁Tha	-10.8566
én	-10.8568
▁Peninsula	-10.857
Over	-10.857
HS	-10.8573
▁networks	-10.8574
▁1891	-10.8574
▁Bristol	-10.8575
▁Trail	-10.8575
four	-10.8577
▁reveals	-10.858
Track	-10.8581
Despite	-10.8582
Current	-10.8583
▁funeral	-10.8583
reg	-10.8583
▁Kil	-10.8585
Robert	-10.8588
▁Anton	-10.8589
jar	-10.8591
▁mounted	-10.8592
▁touring	-10.8594
▁pi	-10.8599
▁themes	-10.8601
▁1990,	-10.8602
note	-10.8603
▁Charlotte	-10.8603
▁Berg	-10.8608
▁endemic	-10.8609
▁Eli	-10.8609
▁Ty	-10.8612
▁viewed	-10.8612
▁frequency	-10.8612
ç	-10.8612
tile	-10.8613
▁poems	-10.8614
▁apparently	-10.8615
▁lock	-10.8615
▁producers	-10.8617
▁honorary	-10.8617
▁driven	-10.8618
▁nurse	-10.8618
▁seconds	-10.8618
▁Lind	-10.8618
▁affiliate	-10.8618
▁Nat	-10.8619
▁dialect	-10.862
▁Alberta	-10.8621
▁ver	-10.8624
▁coat	-10.8624
WA	-10.8627
▁substantial	-10.8627
▁prove	-10.863
What	-10.8631
▁Bible	-10.8632
smith	-10.8635
ime	-10.8639
hra	-10.8639
▁anchor	-10.8643
▁layer	-10.8645
▁till	-10.8646
▁Circuit	-10.8647
▁Franklin	-10.8648
wl	-10.8649
▁basin	-10.8651
gas	-10.8657
▁enable	-10.8659
gro	-10.8665
▁significance	-10.8669
▁rebuilt	-10.8672
▁ongoing	-10.8673
▁boats	-10.8673
▁connect	-10.8674
▁Fall	-10.8676
TS	-10.8679
▁exposed	-10.8679
▁intellectual	-10.8679
▁1995.	-10.8681
▁seeking	-10.8689
▁benefits	-10.869
▁alternate	-10.8691
▁withdrew	-10.8692
▁fresh	-10.8693
▁hydro	-10.8693
inch	-10.8693
▁Girls	-10.8694
▁suggest	-10.8696
▁alter	-10.8698
▁leaf	-10.8699
▁displayed	-10.8699
▁tribe	-10.8701
▁bear	-10.8703
▁Food	-10.8703
Inter	-10.8704
2011	-10.8705
raj	-10.8705
▁ceased	-10.871
▁sole	-10.8719
mie	-10.8723
▁1888	-10.8723
▁Pictures	-10.8725
▁housed	-10.8727
▁About	-10.8728
▁file	-10.8728
nz	-10.8733
▁relationships	-10.8735
▁extreme	-10.8739
▁pandemic	-10.8744
▁qualify	-10.8744
▁sharp	-10.8747
roy	-10.8748
eta	-10.875
▁Friday	-10.8753
ugh	-10.8754
▁Ky	-10.8755
▁deployed	-10.8755
▁pull	-10.8759
bot	-10.876
lian	-10.8762
▁coup	-10.8767
▁moderate	-10.877
▁discussed	-10.877
▁finals	-10.8775
▁resignation	-10.8776
pers	-10.8777
lat	-10.8778
▁Alaska	-10.8779
▁tier	-10.8784
▁collect	-10.8785
ides	-10.8786
▁possibility	-10.8786
▁hu	-10.8787
zz	-10.8788
▁Av	-10.8789
▁Girl	-10.8793
400	-10.8793
▁recover	-10.8794
lain	-10.8794
mission	-10.8799
▁Thi	-10.8801
uro	-10.8801
etta	-10.8801
fort	-10.8802
▁Jimmy	-10.8803
▁mini	-10.8808
▁fragment	-10.881
▁1865	-10.8811
▁Wang	-10.8815
stead	-10.8816
uka	-10.8821
▁fee	-10.8821
-5	-10.8823
phon	-10.8824
▁retain	-10.8826
tam	-10.8828
▁Ant	-10.8828
▁ambassador	-10.883
NS	-10.8833
▁credits	-10.8834
▁drummer	-10.8837
▁Afghanistan	-10.8838
▁sixteen	-10.8838
rai	-10.884
▁assists	-10.8841
▁coaching	-10.8842
▁Cooper	-10.8845
▁Persian	-10.8845
tten	-10.8847
read	-10.885
▁exists	-10.8851
lac	-10.8853
-12	-10.8855
▁prince	-10.8856
foot	-10.8857
▁Victor	-10.8857
pl	-10.8861
▁establishing	-10.8868
▁Tru	-10.887
▁Kings	-10.8872
box	-10.8872
▁indicate	-10.8874
▁Kol	-10.8875
▁fictional	-10.8876
blo	-10.8885
ographic	-10.8886
▁Apple	-10.8891
▁permit	-10.8892
osis	-10.8894
▁electrical	-10.8895
▁contributing	-10.8895
▁Boys	-10.8896
▁tests	-10.8896
elo	-10.8897
▁Formation	-10.8898
▁Shin	-10.8903
▁steps	-10.8904
▁dual	-10.8909
▁discover	-10.8911
▁Dark	-10.8912
▁sees	-10.8912
▁53	-10.8916
▁Bern	-10.8916
▁initiated	-10.8916
▁colony	-10.8918
alia	-10.8921
bell	-10.8922
▁soldier	-10.8924
▁sang	-10.8925
apa	-10.8927
▁57	-10.8931
▁Low	-10.8932
▁assisted	-10.8932
ech	-10.8933
▁gallery	-10.8934
▁loop	-10.8934
▁Block	-10.8934
RO	-10.8937
stin	-10.8938
▁Jason	-10.8946
▁dominated	-10.8947
▁mountains	-10.8947
▁VI	-10.8949
▁Din	-10.8951
▁Christopher	-10.8953
▁span	-10.8954
▁bra	-10.896
▁1864	-10.896
scribe	-10.8964
▁guilty	-10.8965
▁Dog	-10.8966
num	-10.8968
▁decide	-10.897
uv	-10.8971
▁drugs	-10.8972
▁mi	-10.8973
▁Attorney	-10.8975
wide	-10.8975
▁personality	-10.8977
▁Rico	-10.8979
▁animated	-10.898
▁artwork	-10.8982
▁crown	-10.8984
▁Sai	-10.8985
▁1992.	-10.899
▁licensed	-10.8991
▁keeping	-10.8992
▁Armenian	-10.8992
▁servant	-10.8995
tens	-10.8999
quin	-10.8999
▁manage	-10.9
▁Tai	-10.9002
▁disaster	-10.9006
▁happen	-10.9007
▁Gary	-10.9008
▁contribute	-10.901
▁wingspan	-10.901
▁generated	-10.901
▁Hunter	-10.9011
▁expert	-10.9014
James	-10.9015
▁partially	-10.9016
▁Vis	-10.9017
▁lift	-10.9018
▁Ice	-10.9018
rog	-10.9019
▁baby	-10.902
AL	-10.9023
▁submitted	-10.9024
ois	-10.9024
▁Adelaide	-10.9024
stro	-10.9025
▁Munich	-10.9027
▁index	-10.9027
▁superior	-10.9028
▁NHL	-10.9028
▁vertical	-10.903
▁Ian	-10.903
▁jail	-10.9033
▁cooperation	-10.9037
▁eldest	-10.9039
emi	-10.904
▁cash	-10.9044
▁emphasis	-10.9046
ees	-10.9047
▁agents	-10.9053
▁Clo	-10.9055
member	-10.9056
500	-10.9057
▁requested	-10.9059
▁CE	-10.9063
Women	-10.9063
kon	-10.9065
ending	-10.9066
ott	-10.9068
▁Americans	-10.9071
▁remix	-10.9072
▁honors	-10.9073
▁internationally	-10.9074
▁$3	-10.9074
▁detail	-10.9076
dh	-10.9078
▁adults	-10.9078
Legacy	-10.9081
▁66	-10.9082
gna	-10.9083
▁und	-10.9085
▁jury	-10.9087
▁execution	-10.9088
▁employ	-10.9091
▁Protestant	-10.9091
odor	-10.9092
-0	-10.9094
anti	-10.9094
▁Gill	-10.9095
▁gap	-10.9096
▁apply	-10.9098
▁recognize	-10.9099
▁anyone	-10.9104
▁1994.	-10.9105
▁Caribbean	-10.9106
▁resort	-10.9112
▁collaborated	-10.9112
▁exclusively	-10.9113
▁cluster	-10.9113
llen	-10.9115
▁wearing	-10.9119
▁SS	-10.9122
▁Sport	-10.9123
▁retreat	-10.9123
▁farmers	-10.9125
▁Hope	-10.9126
▁attract	-10.9128
Fo	-10.9128
▁Hen	-10.9133
▁traded	-10.9134
akh	-10.9135
lyn	-10.9137
▁photographer	-10.9137
▁#1	-10.9142
borough	-10.9143
▁imperial	-10.9147
▁1887	-10.9149
▁wealth	-10.9154
▁Municipal	-10.9167
▁Muhammad	-10.9169
ín	-10.9169
▁falling	-10.917
▁ranks	-10.917
▁statistics	-10.917
two	-10.9172
▁Studio	-10.9173
mbo	-10.9173
▁Swa	-10.9173
Big	-10.9174
▁flank	-10.9174
▁Story	-10.9176
tric	-10.9176
▁trend	-10.9176
▁patron	-10.9182
▁advice	-10.9182
▁blow	-10.9185
▁ministry	-10.9186
▁pur	-10.9187
▁principles	-10.9187
▁Horse	-10.9188
▁mistake	-10.9188
▁unincorporated	-10.9192
▁1886	-10.9193
▁scientists	-10.9194
▁fled	-10.9195
▁adopt	-10.9196
▁Archbishop	-10.9196
▁crossed	-10.92
vat	-10.92
▁circumstances	-10.9201
▁dozen	-10.9202
Sal	-10.9203
▁bench	-10.9205
▁legislative	-10.9206
▁Turk	-10.9206
▁Coach	-10.9207
ched	-10.9207
hav	-10.9207
▁violent	-10.9208
▁cre	-10.9208
▁1850	-10.9209
▁closing	-10.921
▁Daily	-10.9213
fall	-10.9218
ID	-10.9222
▁Range	-10.9222
▁Athletics	-10.9224
▁comparison	-10.9225
▁Abu	-10.9225
▁Hur	-10.9226
▁designation	-10.9226
▁remote	-10.9226
▁120	-10.9233
▁Professional	-10.9234
▁Cultural	-10.9235
vas	-10.9236
▁mechanical	-10.9236
Return	-10.9236
▁grows	-10.9237
hai	-10.9238
▁closer	-10.9238
▁explore	-10.9241
▁instrument	-10.9242
▁constitution	-10.9243
▁missile	-10.9243
▁engagement	-10.9247
▁Brad	-10.9249
▁Arch	-10.925
▁Chair	-10.9253
▁Child	-10.9253
▁departed	-10.9256
▁trace	-10.9257
free	-10.9259
oi	-10.926
▁Warner	-10.9264
▁Billy	-10.9266
▁clothing	-10.9267
▁rising	-10.9267
▁Branch	-10.9272
cious	-10.9277
▁How	-10.9277
▁Mediterranean	-10.9279
itu	-10.928
▁yield	-10.9281
▁movies	-10.9282
▁compound	-10.9284
▁manufacturer	-10.9284
cz	-10.9285
▁normally	-10.9287
▁Mitchell	-10.9288
▁summit	-10.9288
▁Dragon	-10.9289
Han	-10.9289
▁outdoor	-10.929
▁Sat	-10.9291
core	-10.9294
eon	-10.9295
▁discussion	-10.9296
ffer	-10.9296
▁Turner	-10.9299
▁destruction	-10.9301
▁App	-10.9303
Love	-10.9305
▁Ever	-10.9306
Ed	-10.9307
▁bright	-10.9307
▁playoffs	-10.9307
card	-10.9308
▁1884	-10.931
▁Craig	-10.9311
2012	-10.9312
▁promoting	-10.9315
▁1987,	-10.9323
lent	-10.9326
▁victim	-10.9326
▁Reg	-10.9327
wall	-10.9327
tech	-10.9328
▁equation	-10.9331
mile	-10.9331
▁Guardian	-10.9335
▁Ghana	-10.9338
▁connecting	-10.934
▁Mand	-10.9341
▁desert	-10.9341
▁heads	-10.9344
▁thereafter	-10.9344
▁Nik	-10.9347
▁Pas	-10.9347
▁Henri	-10.9348
▁Wayne	-10.9349
month	-10.9349
▁forests	-10.9349
aff	-10.9353
▁examination	-10.9353
▁channels	-10.9355
▁Diocese	-10.9362
▁participating	-10.9362
▁battery	-10.9363
▁managing	-10.9365
▁exhibitions	-10.9365
graph	-10.9368
▁broadcasting	-10.9369
▁virus	-10.9372
▁SC	-10.9374
cir	-10.9376
▁Palm	-10.9377
▁plea	-10.9381
▁Fan	-10.9381
▁depression	-10.9386
▁defend	-10.9386
brook	-10.9386
▁speaking	-10.9388
▁Charlie	-10.9393
▁Grey	-10.9395
Super	-10.9397
▁escort	-10.94
David	-10.9408
ctic	-10.9408
bank	-10.941
▁columns	-10.941
▁regulations	-10.9412
▁travelled	-10.9412
▁seem	-10.9415
▁1863	-10.9417
oll	-10.942
▁Video	-10.9423
tim	-10.9424
▁neck	-10.9424
▁photographs	-10.9428
▁Lev	-10.9429
▁Princess	-10.9429
▁quarterback	-10.943
ota	-10.943
▁1862	-10.9434
▁swimming	-10.9434
▁seeing	-10.9435
▁Mason	-10.9435
▁1993.	-10.9436
▁locally	-10.9437
▁Mir	-10.9446
winning	-10.9447
▁arrangement	-10.9449
Between	-10.9449
▁Dia	-10.9454
asa	-10.9457
▁switch	-10.9458
▁respective	-10.946
▁Barcelona	-10.946
alis	-10.9462
▁Cri	-10.9465
▁lawsuit	-10.9466
▁midfielder	-10.9469
▁Here	-10.947
rage	-10.947
org	-10.9474
vant	-10.9475
▁Gas	-10.9476
ulu	-10.9477
meter	-10.948
▁Just	-10.9486
EM	-10.9486
sim	-10.9489
▁constitutional	-10.9494
ulate	-10.9501
▁else	-10.9502
▁nearest	-10.9503
anna	-10.9508
▁sponsor	-10.9508
2000	-10.9509
formerly	-10.951
▁wealthy	-10.9511
▁march	-10.9511
▁consul	-10.9512
▁demonstrated	-10.9514
▁rap	-10.9515
▁Rangers	-10.9518
▁destination	-10.9518
▁Sad	-10.952
▁Leon	-10.952
▁Fin	-10.9521
▁diverse	-10.9522
ée	-10.9524
-6	-10.9528
▁corporation	-10.9528
Mad	-10.953
▁algorithm	-10.953
▁territories	-10.953
NT	-10.9531
▁Gene	-10.9531
avan	-10.9532
Team	-10.9532
▁2–1	-10.9533
▁eligible	-10.9535
▁Action	-10.9536
▁pump	-10.9537
▁produces	-10.9537
▁den	-10.954
▁enrolled	-10.954
ovich	-10.9541
▁forewings	-10.9542
▁pole	-10.9548
▁Qua	-10.9548
▁fourteen	-10.955
▁What	-10.9554
acy	-10.9556
▁Guy	-10.9558
▁Helen	-10.9559
▁conventional	-10.9563
▁communications	-10.9565
▁snail	-10.9565
▁Kara	-10.9566
uda	-10.9566
mur	-10.9567
tia	-10.9569
iki	-10.9569
▁sugar	-10.957
▁tele	-10.9572
▁missions	-10.9572
▁Arabic	-10.9573
King	-10.9573
▁paint	-10.9578
Hi	-10.958
▁Soccer	-10.9581
order	-10.9581
▁Tang	-10.9584
trans	-10.9585
ening	-10.9585
▁density	-10.9588
▁Bulgarian	-10.959
▁closure	-10.959
▁Gla	-10.959
aq	-10.959
▁suitable	-10.9591
llo	-10.9593
They	-10.9593
▁Saudi	-10.9597
app	-10.9598
▁fame	-10.9598
▁McG	-10.96
▁enterprise	-10.9602
▁cattle	-10.9605
dio	-10.9607
▁Jin	-10.9609
▁1988,	-10.961
▁delivery	-10.961
2013	-10.9611
▁framework	-10.9611
▁Rod	-10.9612
▁clan	-10.9613
▁extensively	-10.9613
▁defended	-10.9613
▁agree	-10.9615
▁Heath	-10.9616
▁Commons	-10.9617
▁clearly	-10.9617
▁Barr	-10.962
▁register	-10.9629
▁outstanding	-10.963
▁root	-10.963
▁plate	-10.963
dding	-10.963
ching	-10.9632
▁breaking	-10.9633
▁poverty	-10.9636
▁1881	-10.9637
▁opponent	-10.9639
▁mechanism	-10.9641
▁Such	-10.9642
Nor	-10.9643
▁Robin	-10.9648
▁Industry	-10.9649
fra	-10.965
amba	-10.9651
city	-10.9653
▁electricity	-10.9655
▁centers	-10.9656
bing	-10.9656
▁Faculty	-10.9659
aro	-10.966
▁Lions	-10.9661
Sh	-10.9663
▁Est	-10.9663
▁Ker	-10.9664
▁72	-10.9664
▁operator	-10.9665
▁Trump	-10.9669
▁destroy	-10.9669
▁respond	-10.967
▁indigenous	-10.9673
plane	-10.9674
▁vast	-10.9676
▁drivers	-10.968
▁tool	-10.9682
▁permission	-10.9682
▁Collection	-10.9683
rina	-10.9686
▁AM	-10.9686
tian	-10.969
▁handle	-10.9693
▁Clinton	-10.9693
▁Parker	-10.9693
▁1991.	-10.9695
▁Carlos	-10.9695
sville	-10.9697
▁phrase	-10.9698
▁boundaries	-10.97
▁Kenya	-10.97
▁intervention	-10.9703
▁Tel	-10.9704
▁fundamental	-10.9705
ń	-10.9708
▁Ivan	-10.971
▁Nicholas	-10.9713
Gi	-10.9715
path	-10.9718
▁Along	-10.9718
External	-10.9718
▁Virgin	-10.9721
▁concerning	-10.9724
▁commitment	-10.9725
▁1945,	-10.9726
▁Lau	-10.9726
ogen	-10.9729
▁evolution	-10.9731
▁Bow	-10.9732
▁abolished	-10.9733
▁comment	-10.9733
▁ear	-10.9736
▁topics	-10.9737
▁vocalist	-10.9738
cial	-10.9738
rm	-10.9738
▁elder	-10.974
then	-10.974
▁consist	-10.9741
hem	-10.9741
▁beam	-10.9743
▁Barbara	-10.9745
▁sequel	-10.9748
xe	-10.9748
▁unsuccessful	-10.9749
▁Harrison	-10.975
▁Orange	-10.9751
▁bachelor	-10.9751
▁Kel	-10.9756
itis	-10.9757
2015	-10.9758
aud	-10.9758
▁1861	-10.9759
▁Nation	-10.976
▁58	-10.9762
▁Wo	-10.9764
▁latest	-10.9766
▁rifle	-10.9766
▁decorated	-10.9769
▁partly	-10.9773
▁weapon	-10.9775
▁1986,	-10.978
▁principle	-10.9782
EP	-10.9783
ulated	-10.9784
▁log	-10.9785
▁diplomatic	-10.9785
▁Leonard	-10.9786
League	-10.9786
▁Merc	-10.9787
▁faction	-10.9787
Part	-10.9788
Second	-10.9788
ered	-10.9794
▁600	-10.9794
▁matters	-10.9795
width	-10.9796
▁Blo	-10.9796
▁mat	-10.9797
▁accessible	-10.9801
▁1882	-10.9801
▁Jazz	-10.9802
▁Father	-10.9803
▁devoted	-10.9804
▁Benjamin	-10.9806
▁larvae	-10.9814
▁Abbey	-10.9815
▁59	-10.9818
▁manufactured	-10.9819
▁Vale	-10.9819
300	-10.9819
▁tight	-10.982
▁marking	-10.9822
▁looked	-10.9822
imo	-10.9822
was	-10.9824
▁throne	-10.9827
▁banned	-10.9833
▁ticket	-10.9834
▁Tigers	-10.9835
▁define	-10.9835
▁Shan	-10.9836
▁Century	-10.984
▁blog	-10.984
ico	-10.9841
▁disbanded	-10.9843
▁Fur	-10.9843
▁outcome	-10.9844
▁Communications	-10.9844
▁Springs	-10.9846
▁flu	-10.9849
▁Xi	-10.9851
▁Cuba	-10.9851
▁wait	-10.9852
▁involves	-10.9853
▁signs	-10.9854
ML	-10.9855
lies	-10.9858
2009	-10.9862
▁Joan	-10.9863
▁kg	-10.9864
▁assignment	-10.9865
▁believes	-10.9868
sted	-10.9875
▁tomb	-10.9876
▁1989.	-10.9878
▁Hand	-10.9879
▁AC	-10.9882
lines	-10.9883
▁Minor	-10.9885
▁Michel	-10.9885
▁grass	-10.9886
kie	-10.9887
LC	-10.9887
▁Language	-10.989
logy	-10.989
▁neither	-10.989
▁relegated	-10.9892
iko	-10.9892
▁voters	-10.9893
▁250	-10.9893
▁Pal	-10.9894
▁signature	-10.9894
oz	-10.9896
cade	-10.9897
▁belief	-10.9899
▁Pet	-10.9901
ña	-10.9902
United	-10.9903
▁hear	-10.9906
▁waste	-10.991
▁Mari	-10.9913
▁streak	-10.9916
ern	-10.9916
▁Has	-10.9917
▁helicopter	-10.9918
▁Neu	-10.9918
length	-10.9918
coming	-10.992
▁doors	-10.9921
hin	-10.9922
▁roots	-10.9923
▁references	-10.9926
▁sessions	-10.9931
▁monitor	-10.9931
▁essential	-10.9935
▁continuous	-10.9937
▁festivals	-10.9939
▁Soon	-10.994
▁spots	-10.994
▁Philippine	-10.9943
▁Nam	-10.9943
uru	-10.9944
Wi	-10.9945
▁lowest	-10.9945
▁clock	-10.9945
▁describing	-10.9946
▁Alice	-10.9947
att	-10.995
gil	-10.995
▁Crambidae	-10.9952
pit	-10.9953
▁pictures	-10.9954
▁Bai	-10.9955
▁hyper	-10.9955
▁Dy	-10.9956
▁Vegas	-10.9958
▁physics	-10.9959
nation	-10.996
▁Luke	-10.9962
▁reaches	-10.9963
mos	-10.9964
▁placing	-10.9965
▁isolated	-10.9969
▁specialist	-10.9969
▁doubt	-10.997
▁Bird	-10.9971
polis	-10.9971
▁patterns	-10.9974
lling	-10.9975
▁800	-10.9979
▁Petersburg	-10.9981
▁Cher	-10.9982
▁prepare	-10.9983
dre	-10.9983
▁immigrants	-10.9983
▁graduation	-10.9983
▁coached	-10.9984
▁10,000	-10.9985
imp	-10.9987
▁giant	-10.9987
▁bed	-10.9992
▁61	-10.9992
omy	-10.9994
▁sailed	-10.9994
▁fighter	-10.9995
▁sleep	-10.9995
▁releases	-10.9996
▁favorite	-10.9996
George	-10.9999
ried	-11
radi	-11.0004
▁Finance	-11.001
Chi	-11.0015
▁tribute	-11.0016
ON	-11.0018
▁1985,	-11.002
▁beauty	-11.002
▁cavalry	-11.0022
▁Treaty	-11.0024
▁1883	-11.0027
▁touchdowns	-11.0027
▁Zu	-11.0028
▁costume	-11.0033
CM	-11.0037
▁playoff	-11.0038
▁repeated	-11.0038
dha	-11.0039
▁infection	-11.0041
Pu	-11.0043
Paul	-11.0044
▁Track	-11.0047
▁spec	-11.0049
▁Jose	-11.0049
▁distinction	-11.005
▁nominations	-11.0051
lets	-11.0052
etti	-11.0052
▁minority	-11.0053
▁communist	-11.0053
Dis	-11.0054
▁ritual	-11.0055
color	-11.0057
▁indicates	-11.0061
▁rebounds	-11.0061
▁deck	-11.0062
▁accommodate	-11.0062
ground	-11.0064
assi	-11.0066
▁negotiations	-11.0067
.1%	-11.0067
▁Kirk	-11.007
▁Susan	-11.007
▁attraction	-11.0071
MO	-11.0071
mble	-11.0072
mini	-11.0073
▁overseas	-11.0074
▁(6	-11.0077
▁Our	-11.0077
▁Associate	-11.0079
Mal	-11.0079
iah	-11.0082
▁Lloyd	-11.0085
▁ranging	-11.0087
▁Raja	-11.0087
scape	-11.0087
▁recognised	-11.0087
▁corruption	-11.0087
▁Johnny	-11.0088
▁Ridge	-11.0088
▁freight	-11.0088
▁cloud	-11.0091
▁theatrical	-11.0092
▁Der	-11.0093
▁convicted	-11.0094
sser	-11.0099
▁archive	-11.0099
▁approached	-11.01
▁63	-11.0101
▁Ny	-11.0101
▁aggregate	-11.0101
▁Qa	-11.0103
▁Shanghai	-11.0105
para	-11.0106
▁affair	-11.0114
▁acres	-11.0114
nel	-11.0117
▁Revival	-11.0118
▁Mall	-11.0118
▁sto	-11.0119
lation	-11.0123
▁presentation	-11.0124
bri	-11.0125
▁fitted	-11.0125
EA	-11.0128
▁tenth	-11.0132
▁receiver	-11.0134
encies	-11.0137
▁Off	-11.0138
▁compiled	-11.0139
▁dialogue	-11.0139
▁hat	-11.0139
PP	-11.0139
▁ridge	-11.0139
real	-11.0142
ista	-11.0142
open	-11.0143
▁structural	-11.0144
▁horror	-11.0146
▁Together	-11.0146
▁originated	-11.0147
▁rivers	-11.015
▁random	-11.0152
▁tanks	-11.0153
▁emperor	-11.0153
▁Cole	-11.0154
zing	-11.0159
▁dangerous	-11.016
ppe	-11.0161
–16	-11.0161
▁Ob	-11.0164
▁Digital	-11.0164
▁sheet	-11.0166
▁Rud	-11.0169
▁cult	-11.017
▁violation	-11.017
▁none	-11.017
▁Bas	-11.0171
▁myth	-11.0174
lav	-11.0174
▁awareness	-11.0175
▁Hil	-11.0178
▁delayed	-11.0179
▁Last	-11.018
▁Barry	-11.0181
▁Shortly	-11.0182
▁certified	-11.0183
▁coaches	-11.0186
▁62	-11.0187
Prior	-11.019
▁Guide	-11.0191
iana	-11.0192
tag	-11.0192
▁Eu	-11.0197
OR	-11.02
▁birthday	-11.0201
▁burial	-11.0202
▁solar	-11.0202
▁Therefore	-11.0204
▁Late	-11.0204
▁Parish	-11.0205
▁valid	-11.0207
▁nominee	-11.021
▁Palestinian	-11.021
;&	-11.0211
▁demonstration	-11.0211
▁Kerala	-11.0212
▁NY	-11.0213
ional	-11.0214
▁Buffalo	-11.0215
▁crimes	-11.0223
▁Chang	-11.0223
▁Chapel	-11.0224
active	-11.0226
standing	-11.0227
maker	-11.0227
▁Construction	-11.0229
▁Anglo	-11.0229
▁Policy	-11.023
▁fighters	-11.0231
▁announcement	-11.0236
lick	-11.0236
mul	-11.0238
▁gear	-11.024
claim	-11.024
▁magic	-11.0241
IM	-11.0241
▁wider	-11.0242
▁1878	-11.0242
▁songwriter	-11.0242
▁Bab	-11.0243
DR	-11.0246
▁Leeds	-11.0247
Bra	-11.025
▁marks	-11.0253
–9	-11.0254
▁Books	-11.0255
August	-11.0256
▁supports	-11.0257
lem	-11.026
▁Ring	-11.0266
▁gla	-11.0266
▁1984,	-11.0272
▁biological	-11.0276
▁Costa	-11.0277
ivity	-11.0281
itive	-11.0291
AD	-11.0291
▁pages	-11.0292
▁speaker	-11.0292
▁Isle	-11.0294
▁Hudson	-11.0296
▁wound	-11.0296
ache	-11.0297
▁Jun	-11.0299
▁Croatian	-11.0304
▁Appeal	-11.0304
▁editions	-11.0305
▁Amsterdam	-11.0306
▁numbered	-11.0306
poli	-11.0306
▁arriving	-11.0309
▁attendance	-11.031
▁moves	-11.0311
▁Pierre	-11.0311
▁RAF	-11.0313
▁Cy	-11.0315
▁connections	-11.0318
▁wings	-11.0325
▁progressive	-11.0327
posit	-11.0327
▁Universal	-11.0328
▁silent	-11.0331
▁pet	-11.0331
▁Crow	-11.0333
oe	-11.0333
▁Hell	-11.0333
▁Falls	-11.0337
ault	-11.0337
erson	-11.0337
▁Hebrew	-11.0338
▁Freedom	-11.0343
▁commenced	-11.0344
▁MS	-11.0345
▁warning	-11.0347
▁rocket	-11.035
▁Kill	-11.0351
▁Gabriel	-11.0352
▁apparent	-11.0355
dition	-11.0358
shaw	-11.036
▁renovation	-11.0361
▁Owen	-11.0362
▁Cle	-11.0363
▁sitting	-11.0364
▁undergraduate	-11.0365
dies	-11.0366
▁Barn	-11.0366
gene	-11.0367
▁knee	-11.0373
▁Industrial	-11.0374
▁identical	-11.0378
▁Sab	-11.038
test	-11.038
▁bird	-11.038
▁Leader	-11.0381
▁expensive	-11.0382
▁Tin	-11.0386
▁relevant	-11.0387
▁Bio	-11.0389
▁Electric	-11.0389
▁recalled	-11.0391
▁Gay	-11.0392
▁Democrats	-11.0393
▁influences	-11.0393
▁Fisher	-11.0395
http	-11.0397
▁tune	-11.0399
gus	-11.0399
ake	-11.0403
▁ties	-11.0403
▁depicted	-11.0404
▁Political	-11.0407
▁Had	-11.041
▁facilitate	-11.041
▁adapt	-11.0413
▁mineral	-11.0415
▁Indians	-11.0416
kara	-11.0417
Playing	-11.0417
▁ballot	-11.0418
▁Cincinnati	-11.0418
▁supposed	-11.042
▁Masters	-11.042
hold	-11.0423
eve	-11.0427
ün	-11.0428
▁triple	-11.043
▁suspension	-11.0433
▁input	-11.0433
▁Broadcasting	-11.0435
▁decisions	-11.0435
▁Death	-11.044
://	-11.0443
▁Hat	-11.0444
dell	-11.0446
▁extend	-11.0448
▁collective	-11.045
▁exposure	-11.0451
page	-11.0454
▁tension	-11.0455
▁interviews	-11.0456
▁1867	-11.0457
▁Collins	-11.0458
▁legislature	-11.0458
▁flee	-11.0461
▁landed	-11.0462
▁visits	-11.0465
▁terminus	-11.0465
Origin	-11.0466
▁siege	-11.0466
▁challenges	-11.0468
▁collapse	-11.047
▁township	-11.0471
▁usual	-11.0473
▁industries	-11.0474
▁Microsoft	-11.0474
pple	-11.0476
▁graph	-11.0477
▁(10	-11.048
▁1871	-11.0481
founded	-11.0481
▁Croatia	-11.0483
▁Non	-11.0484
duction	-11.0484
Notable	-11.0486
▁exclusive	-11.0486
▁Unlike	-11.0488
finite	-11.0489
▁keyboard	-11.0489
▁1876	-11.0491
▁supplement	-11.0495
▁explains	-11.0497
▁fail	-11.0499
PD	-11.0502
nin	-11.0504
▁mines	-11.0505
Sta	-11.0506
▁internet	-11.0507
bia	-11.0508
▁Newcastle	-11.0508
week	-11.0512
▁specialized	-11.0512
▁prayer	-11.0515
▁Ambassador	-11.0516
▁Pun	-11.052
▁shall	-11.0521
▁resemble	-11.0522
tun	-11.0522
fully	-11.0526
▁wish	-11.0526
▁bonus	-11.0532
▁Yale	-11.0532
▁comm	-11.0532
astic	-11.0533
▁drink	-11.0534
Mc	-11.0536
▁Democrat	-11.0536
▁fabric	-11.0537
Location	-11.0538
stock	-11.0542
▁tram	-11.0544
▁Ship	-11.0545
▁promise	-11.0546
vir	-11.0546
▁Brand	-11.0549
GA	-11.0549
rous	-11.0549
▁difficulties	-11.0549
▁attitude	-11.0555
dian	-11.0556
▁chi	-11.0558
Los	-11.0559
▁failing	-11.0559
▁efficient	-11.0559
▁Jonathan	-11.056
▁meat	-11.056
kka	-11.0562
▁1988.	-11.0562
▁tissue	-11.0567
▁Mother	-11.0567
▁Uganda	-11.0569
▁limits	-11.0569
▁relay	-11.0571
eno	-11.0571
▁Phoenix	-11.0572
▁exact	-11.0572
▁Florence	-11.0575
▁Ul	-11.0578
.3%	-11.0581
▁reporting	-11.0581
ür	-11.0582
bian	-11.0582
▁Ground	-11.0588
lag	-11.0591
–8	-11.0593
▁quick	-11.0594
fest	-11.0595
pher	-11.0596
▁trials	-11.0599
▁h	-11.0602
–20	-11.0603
▁Short	-11.0607
▁measurement	-11.0609
▁Norfolk	-11.0609
▁Marc	-11.061
gui	-11.0612
▁Venice	-11.0618
▁restricted	-11.062
bird	-11.062
▁inducted	-11.0624
vision	-11.0628
pect	-11.0628
▁import	-11.0629
▁mall	-11.063
▁mollusk	-11.0631
▁stroke	-11.0631
CR	-11.0632
keeper	-11.0633
▁database	-11.0634
▁Stein	-11.0635
▁sufficient	-11.0638
▁76	-11.0638
▁push	-11.064
▁copper	-11.0643
nja	-11.0648
▁technologies	-11.0648
▁conversation	-11.0648
▁pot	-11.0651
▁prefer	-11.0652
gua	-11.0656
▁Technical	-11.0657
▁introduce	-11.0661
▁Durham	-11.0662
grad	-11.0664
▁choir	-11.0664
▁CO	-11.0665
tribu	-11.0667
▁sin	-11.0667
▁saved	-11.0668
ould	-11.067
▁Byzantine	-11.067
IR	-11.067
▁Jamaica	-11.0672
Design	-11.0675
▁assessment	-11.0675
▁symptoms	-11.0676
world	-11.0677
▁Exchange	-11.0678
▁Nevada	-11.068
▁afternoon	-11.0682
main	-11.0684
▁automatic	-11.0685
omi	-11.0686
▁bull	-11.0692
▁Furthermore	-11.0692
lé	-11.0693
▁commune	-11.0696
▁Within	-11.0697
▁inherited	-11.0698
▁doubles	-11.0699
stall	-11.0701
▁settlers	-11.0705
anta	-11.0706
▁Competition	-11.0707
▁tribes	-11.0711
▁sw	-11.0714
▁cricketer	-11.0714
▁reward	-11.0714
Comp	-11.0715
▁Albanian	-11.0717
▁celebrate	-11.072
▁heir	-11.0721
▁Fal	-11.0721
▁elsewhere	-11.0721
▁legs	-11.0724
sten	-11.0726
liga	-11.0726
▁comprehensive	-11.0729
oriented	-11.073
▁1875	-11.0731
▁deemed	-11.0731
▁1990.	-11.0735
▁1879	-11.0735
▁Luis	-11.0736
rem	-11.0737
▁Mis	-11.0737
▁Symphony	-11.0739
written	-11.0739
▁Cass	-11.0739
▁AR	-11.0741
▁walking	-11.0741
gia	-11.0742
▁magazines	-11.0744
▁resumed	-11.0745
▁alive	-11.0747
▁pointed	-11.0748
▁informed	-11.0749
▁styles	-11.0752
▁tested	-11.0753
▁Ei	-11.0756
March	-11.0757
▁Thai	-11.0758
▁fra	-11.0758
▁pulled	-11.0759
▁murdered	-11.0759
▁harm	-11.0759
BL	-11.0759
fit	-11.0762
▁Poznań	-11.0765
▁engage	-11.0768
rington	-11.0768
trop	-11.077
▁pipe	-11.0771
▁Bert	-11.0772
▁expense	-11.0773
very	-11.0773
care	-11.0779
▁fu	-11.0784
bli	-11.0784
▁1840	-11.0785
▁pal	-11.0787
mme	-11.0788
▁partial	-11.079
▁unlike	-11.0792
▁bombing	-11.0794
yang	-11.0797
▁shoulder	-11.0797
fen	-11.0797
▁Gregory	-11.0801
▁locomotive	-11.0801
▁Originally	-11.0801
▁Buddhist	-11.0804
▁corresponding	-11.0805
aged	-11.0805
▁sanct	-11.0806
elia	-11.0807
▁Storm	-11.0807
▁dissolved	-11.0808
ibility	-11.0809
▁Campaign	-11.0809
▁2021.	-11.0809
▁entrepreneur	-11.081
▁Historical	-11.0811
▁Gang	-11.0814
zel	-11.0814
▁Territory	-11.0814
ego	-11.0815
▁1866	-11.0817
▁Rail	-11.0818
▁counsel	-11.0818
▁Catherine	-11.0821
Three	-11.0821
Red	-11.0823
▁linear	-11.0825
zhou	-11.0829
▁Allied	-11.0831
▁carries	-11.0831
▁Dur	-11.0832
PM	-11.0833
▁Hawk	-11.0833
▁wrestler	-11.0834
▁1–0	-11.0835
MI	-11.0838
▁PA	-11.0839
▁texts	-11.0839
▁1944,	-11.0839
borg	-11.0839
▁dollars	-11.0839
▁67	-11.0843
tant	-11.0843
▁investigate	-11.0843
▁Napoleon	-11.0846
rist	-11.0848
▁transform	-11.0848
Honours	-11.0849
▁Bart	-11.0849
pound	-11.0849
▁provinces	-11.085
qual	-11.0852
▁elect	-11.0853
▁Drive	-11.0855
▁Rai	-11.0857
lift	-11.0857
ño	-11.0861
▁Thor	-11.0863
▁tons	-11.0864
iling	-11.0864
Like	-11.0868
▁interchange	-11.087
cis	-11.087
▁telling	-11.0871
lib	-11.0871
▁1983,	-11.0873
▁laboratory	-11.0873
▁Spirit	-11.0874
▁alien	-11.0879
▁waters	-11.0881
▁elevated	-11.0882
▁Lebanon	-11.0884
▁oversee	-11.0885
▁nephew	-11.0886
▁Punjab	-11.0888
▁Muslims	-11.0889
▁measured	-11.089
▁attempting	-11.0891
lig	-11.0892
▁saving	-11.0894
”.	-11.0894
▁treaty	-11.0894
▁Lil	-11.0896
aver	-11.0903
▁Songs	-11.0907
ifying	-11.0908
▁instruction	-11.0909
▁raising	-11.0909
▁portray	-11.091
ān	-11.0914
▁Panama	-11.0915
cot	-11.092
▁fr	-11.0921
▁traditionally	-11.0923
▁Mars	-11.0923
Mer	-11.0923
cie	-11.0925
▁Anglican	-11.0926
▁supplied	-11.0926
action	-11.0929
▁analog	-11.0929
▁athlete	-11.0931
▁storyline	-11.0931
▁advisor	-11.0932
▁filming	-11.0932
▁queen	-11.0933
▁trap	-11.0933
Mac	-11.0934
Ste	-11.0936
▁guests	-11.0937
2016	-11.0939
gard	-11.0939
▁decrease	-11.094
▁Vas	-11.0944
▁hunting	-11.0947
wy	-11.0949
▁1986.	-11.0951
▁universal	-11.0953
▁Record	-11.0954
cycl	-11.0955
gur	-11.0956
▁Yan	-11.0956
▁Ottawa	-11.0957
▁Artist	-11.0962
▁enforcement	-11.0964
▁1877	-11.0967
▁scar	-11.0967
▁1872	-11.0971
aging	-11.0972
▁wage	-11.0973
▁Blues	-11.0973
▁tag	-11.0975
▁simultaneously	-11.0976
▁sit	-11.0978
▁academy	-11.0979
organ	-11.098
gged	-11.098
▁Lim	-11.0984
▁Dead	-11.0986
nish	-11.0986
print	-11.099
▁1982,	-11.099
nick	-11.0992
CH	-11.0992
▁scientist	-11.0993
▁Formula	-11.0999
▁logo	-11.0999
▁winds	-11.1001
▁Mann	-11.1006
▁Mine	-11.1009
building	-11.101
▁scope	-11.101
▁1873	-11.1011
▁removal	-11.1011
▁Nashville	-11.1012
▁photograph	-11.1013
▁permitted	-11.1017
▁summary	-11.102
ific	-11.1022
rou	-11.1025
1)	-11.1027
▁praise	-11.1029
▁tre	-11.103
▁sisters	-11.103
▁Systems	-11.1031
FI	-11.1032
piece	-11.1033
▁Saints	-11.1037
▁pitcher	-11.1038
▁distinctive	-11.1038
▁1985.	-11.1038
▁Salt	-11.1039
group	-11.1039
▁Auckland	-11.104
▁74	-11.1041
mine	-11.1045
▁preferred	-11.1047
him	-11.105
speed	-11.1051
▁improvements	-11.1052
▁meta	-11.1057
▁prototype	-11.106
▁thinking	-11.1062
rh	-11.1064
▁orbit	-11.1067
▁Celtic	-11.1068
Ab	-11.1072
2008	-11.1072
▁Tag	-11.1074
▁legacy	-11.1075
▁printing	-11.1075
▁curve	-11.1076
▁Devon	-11.1077
lax	-11.1077
aku	-11.1081
▁reducing	-11.1081
▁Pole	-11.1082
▁ward	-11.1083
▁consultant	-11.1085
▁Comics	-11.1086
▁editorial	-11.1087
▁Railways	-11.1088
▁Southeast	-11.1088
▁Rabbi	-11.1093
▁69	-11.1094
umi	-11.1094
▁colleagues	-11.1095
▁buses	-11.1097
▁flew	-11.1098
▁mandate	-11.1099
▁radar	-11.11
▁belt	-11.11
▁Vincent	-11.1102
▁Small	-11.1103
▁rarely	-11.1105
▁Fle	-11.1106
▁gathered	-11.1106
▁traditions	-11.1108
section	-11.1108
yi	-11.1111
base	-11.1114
tell	-11.1115
▁Pont	-11.1115
Work	-11.1115
▁mainstream	-11.1115
▁Shaw	-11.1115
▁slowly	-11.1117
-16	-11.1117
▁characteristic	-11.1118
bie	-11.1118
▁recovery	-11.1122
▁Grove	-11.1123
isa	-11.1125
▁Dec	-11.1125
▁prices	-11.1128
▁powered	-11.1128
▁Cork	-11.1135
▁usage	-11.1135
▁waiting	-11.1136
eman	-11.1136
▁danger	-11.1137
track	-11.1141
▁feeling	-11.1142
▁indicating	-11.1142
▁Woman	-11.1143
▁commemorate	-11.1144
▁NA	-11.1146
▁climb	-11.1153
jur	-11.1153
lid	-11.1156
▁grandson	-11.1156
fan	-11.1159
▁dominant	-11.1159
▁1869	-11.1159
▁Andre	-11.1161
▁solve	-11.1166
▁te	-11.1166
▁Rest	-11.1166
▁nickname	-11.1167
▁machines	-11.1167
▁thanks	-11.1169
SM	-11.1174
Thomas	-11.1175
ural	-11.1175
▁pushed	-11.1176
_3	-11.1176
▁Mumbai	-11.1177
come	-11.1178
▁shopping	-11.1178
PL	-11.1189
▁Indies	-11.1191
dig	-11.1191
▁1987.	-11.1191
SO	-11.1193
hua	-11.1195
▁camps	-11.1195
▁São	-11.1196
Peter	-11.1197
▁°	-11.1198
▁1874	-11.12
▁teach	-11.1204
▁Dakota	-11.1204
bay	-11.121
▁Gau	-11.121
oph	-11.1211
▁Derby	-11.1214
▁Rogers	-11.1217
Group	-11.122
▁flights	-11.1222
ör	-11.1223
▁Grace	-11.1224
▁discontinued	-11.1225
▁Side	-11.1226
gie	-11.1226
▁boot	-11.1226
NP	-11.1226
▁1972,	-11.1226
▁favourite	-11.1231
State	-11.1231
▁Common	-11.1234
▁plastic	-11.1237
Act	-11.1238
▁Election	-11.1239
▁interface	-11.1239
▁belongs	-11.1239
▁Die	-11.1239
▁breed	-11.124
▁cyclist	-11.1242
▁milk	-11.1244
▁arrives	-11.1246
▁85	-11.1247
ido	-11.1248
▁functional	-11.1249
asse	-11.1251
ality	-11.1252
▁citing	-11.1252
▁Sor	-11.1252
▁talks	-11.1253
▁Hamburg	-11.1253
▁sharing	-11.1254
enburg	-11.1254
mad	-11.1254
▁orange	-11.1257
▁yard	-11.1258
▁predominantly	-11.1259
mouth	-11.1259
▁1945.	-11.126
▁retiring	-11.1262
▁approaches	-11.1263
▁dome	-11.1264
▁atmosphere	-11.1264
▁recruited	-11.1265
▁Jur	-11.1267
▁Adult	-11.1267
▁happy	-11.1267
media	-11.127
itude	-11.1273
▁Cinema	-11.1275
▁monthly	-11.1277
▁Colombia	-11.1279
▁Justin	-11.1279
▁illustrated	-11.1279
▁77	-11.1279
▁drove	-11.128
▁manual	-11.128
▁Holland	-11.1281
▁Yugoslavia	-11.1283
sworth	-11.1284
▁ordained	-11.1285
▁surprise	-11.1287
▁dealing	-11.1289
▁Albums	-11.1289
▁Bulgaria	-11.129
▁Athens	-11.129
▁Price	-11.1292
▁altitude	-11.1292
▁1868	-11.1292
NR	-11.1292
▁fastest	-11.1293
Hol	-11.1293
▁Plain	-11.1293
mina	-11.1293
▁Beat	-11.1293
▁blind	-11.1294
NG	-11.1296
▁volleyball	-11.1298
▁excellent	-11.13
▁Argentine	-11.1302
▁demands	-11.1303
otic	-11.1305
▁burned	-11.131
▁consumer	-11.131
enko	-11.1314
VA	-11.1316
▁cool	-11.1316
▁Joint	-11.1316
vari	-11.1318
▁spa	-11.1324
▁Jen	-11.1325
▁elite	-11.1325
.7%	-11.1327
▁tale	-11.133
▁neutral	-11.1331
▁temporarily	-11.1331
▁Pot	-11.1332
Tu	-11.1332
▁militia	-11.1333
Overview	-11.1334
▁transit	-11.1335
Demographics	-11.1342
▁reviewer	-11.1344
chief	-11.1345
▁Herbert	-11.1347
▁Indonesian	-11.1347
▁diesel	-11.1349
▁Monday	-11.1351
▁Eye	-11.1353
▁Around	-11.1353
cross	-11.1354
▁behaviour	-11.1354
fold	-11.1359
▁comprises	-11.136
that	-11.1361
▁Mul	-11.1362
Top	-11.1362
SF	-11.1367
▁segments	-11.1369
▁increases	-11.1371
▁rebel	-11.1371
BE	-11.1373
tty	-11.1375
▁tackles	-11.1377
▁farming	-11.1379
▁populated	-11.138
▁switched	-11.1382
▁Scotia	-11.1382
▁origins	-11.1384
self	-11.1391
▁citizen	-11.1391
▁organic	-11.1395
▁rebels	-11.1396
▁Aviation	-11.1397
▁demonstrate	-11.1397
▁Nebraska	-11.1399
▁challenged	-11.1399
ame	-11.1401
▁escaped	-11.1402
▁73	-11.1402
▁Card	-11.1403
founder	-11.1404
▁rat	-11.1405
▁Gilbert	-11.141
▁mentor	-11.1412
▁decoration	-11.1416
▁worker	-11.1418
▁Bau	-11.1421
▁options	-11.1421
▁administrator	-11.1422
mari	-11.1423
▁Snow	-11.1423
illi	-11.1423
▁doctorate	-11.1424
▁Kas	-11.1425
rak	-11.1428
inter	-11.1428
▁Flor	-11.1429
Works	-11.1429
▁Liu	-11.1429
▁consideration	-11.143
▁Was	-11.1431
▁Sheffield	-11.1433
▁mutual	-11.1433
▁Survey	-11.1433
▁Hit	-11.1434
▁Prefecture	-11.1435
ilo	-11.1436
Shi	-11.1436
▁Oliver	-11.1437
▁Perry	-11.1437
▁volunteers	-11.1439
▁(7	-11.1444
▁Sher	-11.1444
▁mask	-11.1445
▁arrive	-11.1445
▁1984.	-11.1446
▁Gui	-11.1448
rite	-11.1449
▁spaces	-11.1454
▁Rey	-11.1454
▁Students	-11.1457
lang	-11.1457
▁Temp	-11.1457
Ter	-11.1458
▁worst	-11.146
▁scores	-11.1461
▁Junction	-11.1461
▁£1	-11.1462
▁Google	-11.1462
MT	-11.1463
Game	-11.1464
▁stick	-11.1466
▁Beau	-11.1469
▁racial	-11.1469
▁Bear	-11.147
▁manga	-11.1472
GP	-11.1473
hurst	-11.1476
▁Od	-11.1477
▁generate	-11.1481
Cu	-11.1482
▁campaigns	-11.1482
▁targets	-11.1485
dit	-11.1486
▁conductor	-11.1487
yar	-11.1491
mma	-11.1491
▁familiar	-11.1492
▁Commerce	-11.1494
▁1968,	-11.1494
▁innovation	-11.1495
tone	-11.1495
▁71	-11.1495
▁shops	-11.1497
CL	-11.1499
chel	-11.1502
▁exterior	-11.1503
▁Sav	-11.1504
brand	-11.1507
ffe	-11.1507
▁Hel	-11.1511
kill	-11.1512
▁virtual	-11.1515
▁colors	-11.1517
Bri	-11.1521
President	-11.1521
▁whi	-11.1521
▁Protection	-11.1522
▁Eagles	-11.1522
▁Initially	-11.1523
▁procedure	-11.1524
▁Murphy	-11.1525
▁stake	-11.1526
▁Independence	-11.1527
▁variant	-11.1529
gio	-11.153
wai	-11.153
CP	-11.1532
▁Simpson	-11.1533
▁evolved	-11.1533
▁treat	-11.1534
▁discuss	-11.1534
▁Yang	-11.1534
dem	-11.1534
▁sung	-11.1537
cken	-11.1538
▁Que	-11.1538
Live	-11.1542
logue	-11.1542
▁Franco	-11.1545
▁Sr	-11.1547
oka	-11.1548
▁Lab	-11.1551
▁Kumar	-11.1551
800	-11.1552
fici	-11.1553
▁casualties	-11.1554
▁lecturer	-11.1555
shing	-11.1559
▁bore	-11.1559
last	-11.156
600	-11.1562
▁por	-11.1564
code	-11.1564
▁rein	-11.1566
▁valuable	-11.1567
▁Economics	-11.1567
evo	-11.1568
▁combine	-11.157
▁Hero	-11.1571
tham	-11.1572
▁intense	-11.1575
▁sustained	-11.1575
▁threw	-11.1576
▁wire	-11.1578
▁facade	-11.158
▁Jet	-11.158
▁convoy	-11.1584
▁Further	-11.1585
▁Data	-11.1585
Service	-11.1588
▁sensor	-11.1589
▁1848	-11.1589
.9%	-11.1591
▁Admiral	-11.1592
hawk	-11.1593
▁Iraqi	-11.1594
▁beaten	-11.1594
Far	-11.1595
▁seemed	-11.16
Au	-11.1601
odo	-11.1603
▁Contemporary	-11.1605
▁Burn	-11.1606
▁torpedo	-11.1608
Mr	-11.1608
▁Fab	-11.1609
▁Hindi	-11.1609
▁runners	-11.161
▁artificial	-11.161
white	-11.1612
▁Bud	-11.1614
▁periods	-11.1614
▁abstract	-11.1621
▁bag	-11.1621
nard	-11.1627
atus	-11.1628
▁Uni	-11.1629
▁Dol	-11.1629
NE	-11.163
▁sure	-11.1631
▁1979,	-11.1631
▁riot	-11.1633
▁tournaments	-11.1635
Season	-11.1635
▁hence	-11.1636
▁steep	-11.1636
▁crystal	-11.1646
▁fifty	-11.1647
Due	-11.1649
▁68	-11.1649
▁Hau	-11.165
▁Productions	-11.165
moto	-11.1651
▁Rosa	-11.1653
cid	-11.1654
▁payment	-11.1654
▁Aero	-11.1656
▁mosque	-11.166
iness	-11.166
Species	-11.1661
▁imprisoned	-11.1662
▁whorl	-11.1662
▁Soul	-11.1663
▁1981,	-11.1663
▁cook	-11.1667
lik	-11.1669
▁incorporate	-11.1669
▁MTV	-11.1675
gr	-11.1677
▁Wellington	-11.1678
Episode	-11.1679
rik	-11.168
▁Perth	-11.1681
vre	-11.1681
▁hills	-11.1683
▁1978,	-11.1683
▁thirteen	-11.1683
▁Denver	-11.1686
▁namely	-11.1687
.8%	-11.1688
▁Gran	-11.1689
▁consistent	-11.169
▁Keith	-11.169
hur	-11.1692
▁1942,	-11.1693
▁improvement	-11.1695
▁difficulty	-11.1696
▁Ski	-11.1696
▁actively	-11.1697
▁1974,	-11.1698
▁corps	-11.17
▁Stanford	-11.17
empt	-11.1701
▁comments	-11.1701
▁Highland	-11.1701
▁Carol	-11.1703
atic	-11.1704
▁Cold	-11.1705
▁suspect	-11.1705
▁finger	-11.1706
▁Somerset	-11.1708
volution	-11.1708
▁rape	-11.171
cock	-11.171
.4%	-11.171
▁Essex	-11.171
English	-11.1712
handed	-11.1712
▁arena	-11.1713
bling	-11.1713
shore	-11.1713
mere	-11.1714
about	-11.1715
▁shock	-11.1716
▁tributary	-11.1716
▁friendship	-11.1719
▁Dai	-11.172
Im	-11.1722
▁Harbor	-11.1726
▁aims	-11.1726
rb	-11.1728
▁Wol	-11.173
▁Web	-11.1732
fri	-11.1737
▁surrender	-11.1738
▁Are	-11.1738
▁Lyon	-11.1741
▁stri	-11.1742
▁Bag	-11.1744
hman	-11.1744
Let	-11.1745
▁Workers	-11.1749
▁Mala	-11.175
Book	-11.175
erie	-11.175
rash	-11.175
▁connects	-11.1753
▁Petr	-11.1755
▁explain	-11.1758
unda	-11.176
▁chemistry	-11.1766
▁compositions	-11.1767
▁Stuart	-11.1767
▁subfamily	-11.1769
sport	-11.177
ught	-11.1772
▁archaeological	-11.1773
▁efficiency	-11.1773
▁"[	-11.1773
▁Room	-11.1775
▁Java	-11.1775
rect	-11.1776
▁Guild	-11.1776
▁crosses	-11.1779
▁reservoir	-11.1782
▁78	-11.1783
▁victories	-11.1784
▁Hughes	-11.1784
▁aspect	-11.1786
▁unless	-11.1786
▁footage	-11.1787
“	-11.1787
▁drums	-11.1788
pon	-11.1789
▁eggs	-11.179
▁Artillery	-11.1793
▁rice	-11.1796
▁odd	-11.1796
Vo	-11.1797
–10	-11.1797
▁Eventually	-11.1799
▁Rain	-11.1801
▁holder	-11.1805
▁golden	-11.1805
▁Giants	-11.1807
▁bomber	-11.1807
▁focusing	-11.1808
▁neo	-11.181
▁productions	-11.1817
List	-11.1818
▁recall	-11.1822
▁(14	-11.1823
▁Yi	-11.1825
▁Cruz	-11.1825
bun	-11.1826
▁Site	-11.1827
stad	-11.1831
▁distinguish	-11.1832
▁Finally	-11.1832
▁Wilhelm	-11.1833
▁profession	-11.1833
ility	-11.1833
zzo	-11.1835
▁Schu	-11.1836
DI	-11.1836
phi	-11.1839
shot	-11.1839
▁1975,	-11.1839
rier	-11.1841
▁bri	-11.1843
▁Stockholm	-11.1844
▁settle	-11.1844
▁slave	-11.1844
bad	-11.1845
▁1976,	-11.1848
osaur	-11.1848
▁Sm	-11.1849
▁1969,	-11.1852
▁1982.	-11.1853
▁diet	-11.1853
▁99	-11.1854
▁cutting	-11.1854
▁dock	-11.1855
▁Well	-11.1855
▁reviewed	-11.1858
▁MD	-11.186
▁scandal	-11.186
▁Mills	-11.1861
▁temperatures	-11.1862
▁taxes	-11.1862
▁aboard	-11.1863
▁gathering	-11.1864
▁LGBT	-11.1864
▁vary	-11.1868
cultural	-11.187
PO	-11.187
▁Transit	-11.1871
itan	-11.1872
▁telephone	-11.1875
lev	-11.1876
▁dramatic	-11.1877
Gar	-11.1877
▁bout	-11.188
▁auction	-11.1881
ope	-11.1883
igan	-11.1883
▁Madison	-11.1884
▁documented	-11.1886
▁geo	-11.1888
school	-11.1894
Not	-11.1899
▁Every	-11.19
▁Beth	-11.1901
▁Institution	-11.1903
Ser	-11.1904
▁Leo	-11.1904
▁grain	-11.1907
6,000	-11.191
▁Scout	-11.1911
▁Pac	-11.1915
wind	-11.1915
word	-11.1916
▁drum	-11.1918
ago	-11.1918
▁Wen	-11.1918
yama	-11.1919
▁organisations	-11.1919
jin	-11.1921
▁Methodist	-11.1921
Several	-11.1921
▁clients	-11.1922
▁municipalities	-11.1923
.6%	-11.1924
▁collector	-11.1925
▁Sony	-11.1928
▁evil	-11.1928
▁gardens	-11.1931
▁Type	-11.1931
▁traveling	-11.1931
Development	-11.1932
▁asking	-11.1933
▁Dennis	-11.1933
▁82	-11.1938
ár	-11.1941
▁restaurants	-11.1942
▁Andrea	-11.1942
how	-11.1943
▁cathedral	-11.1943
▁worn	-11.1946
urg	-11.1947
▁Butler	-11.1947
▁Future	-11.1947
vic	-11.1948
▁lie	-11.1949
ici	-11.195
▁Ok	-11.1951
▁Sid	-11.1952
▁Actor	-11.1952
▁manufacture	-11.1954
eira	-11.1957
▁Blu	-11.1958
▁Care	-11.1958
▁Bach	-11.1961
▁hidden	-11.1963
▁departments	-11.1965
omo	-11.1967
▁empire	-11.1968
▁consumption	-11.1968
▁ratings	-11.1969
▁destroyer	-11.1971
▁exile	-11.1972
acle	-11.1973
▁animation	-11.1975
ller	-11.1977
▁AA	-11.1979
▁historians	-11.1981
▁Steven	-11.1983
▁indoor	-11.1983
▁1971,	-11.1983
utter	-11.1984
▁configuration	-11.1986
▁Mou	-11.1988
▁abandon	-11.1989
rze	-11.199
▁headquartered	-11.1995
▁protagonist	-11.1995
▁substance	-11.1995
▁pianist	-11.1995
endra	-11.1998
▁Operations	-11.2
▁Bears	-11.2002
▁historically	-11.2002
-8	-11.2004
▁hang	-11.2006
▁Oil	-11.201
▁Album	-11.2016
▁beside	-11.2016
▁Cameron	-11.2017
road	-11.2019
▁mail	-11.2019
▁athletic	-11.2019
uel	-11.2022
▁Johann	-11.2022
second	-11.2023
▁receives	-11.2024
▁Tasmania	-11.2024
▁BA	-11.2025
▁(12	-11.2029
▁therapy	-11.2032
▁filmmaker	-11.2034
third	-11.2035
▁repeat	-11.2038
▁Gothic	-11.2042
EL	-11.2044
rud	-11.2044
bid	-11.2046
▁martial	-11.2047
▁borders	-11.2047
Ben	-11.2049
▁Midland	-11.205
▁ensemble	-11.2051
dden	-11.2057
▁Estate	-11.2058
▁extending	-11.2058
ichi	-11.2062
ffin	-11.2062
▁Years	-11.2063
▁aware	-11.2068
Note	-11.2069
lai	-11.2069
dler	-11.207
▁Chuck	-11.207
▁Stakes	-11.207
▁Fish	-11.2071
lement	-11.2071
▁Pedro	-11.2073
ór	-11.2074
▁creator	-11.2077
▁companion	-11.2078
pes	-11.208
Cast	-11.2082
▁bone	-11.2083
▁putting	-11.2085
ør	-11.2085
▁forty	-11.2085
East	-11.2085
▁vector	-11.2087
▁landmark	-11.2088
LP	-11.2088
issa	-11.2089
▁1979.	-11.2091
▁admit	-11.2093
south	-11.2094
▁renowned	-11.2096
▁grid	-11.2096
▁Terry	-11.2098
▁ancestor	-11.2103
UN	-11.2105
▁Hun	-11.2109
▁kilometers	-11.211
tig	-11.211
brew	-11.2119
▁Slovenia	-11.2119
▁hybrid	-11.2119
TO	-11.2119
usa	-11.212
▁looks	-11.2123
▁shoe	-11.2124
nen	-11.2124
▁economics	-11.2124
▁addressed	-11.2125
▁Voice	-11.2126
▁Harvey	-11.2126
▁diocese	-11.2128
▁modification	-11.2128
Jack	-11.2129
▁descendants	-11.213
▁helps	-11.2131
▁exactly	-11.2134
▁Chen	-11.2135
▁certificate	-11.2137
fla	-11.2139
Trans	-11.2139
inus	-11.214
look	-11.2141
▁willing	-11.2142
Publication	-11.2142
▁Berkeley	-11.2144
▁goalkeeper	-11.215
▁drinking	-11.2155
▁ERA	-11.2155
▁interesting	-11.2156
▁layout	-11.2157
▁universe	-11.2157
cop	-11.2158
▁parking	-11.216
▁settlements	-11.216
▁Nine	-11.2162
▁sick	-11.2162
craft	-11.2164
▁muscle	-11.2164
▁Fen	-11.2165
rot	-11.2166
nova	-11.2168
▁"(	-11.2168
▁employee	-11.2168
▁administered	-11.2169
iber	-11.217
▁discovers	-11.217
▁Having	-11.2172
▁Falcon	-11.2173
▁feelings	-11.2173
▁1973,	-11.2174
produced	-11.2176
▁bow	-11.218
ider	-11.218
▁lover	-11.2181
▁bin	-11.2182
rod	-11.2183
▁handed	-11.2186
▁cartoon	-11.2186
▁Performance	-11.2187
▁Chester	-11.2189
April	-11.219
▁def	-11.2193
▁solutions	-11.2195
▁rebellion	-11.2196
▁wake	-11.2197
▁proteins	-11.2197
▁Nadu	-11.22
▁Oscar	-11.2201
ception	-11.2202
▁clay	-11.2202
HF	-11.2203
▁sculptor	-11.2203
▁updated	-11.2204
▁Montana	-11.2204
▁Amazon	-11.2208
▁Hugh	-11.2208
▁1941,	-11.2212
Michael	-11.2213
June	-11.2217
▁acoustic	-11.2217
▁1967,	-11.2218
▁strain	-11.2218
▁dancing	-11.2219
Charles	-11.222
▁aviation	-11.2222
▁Grammy	-11.2224
▁jet	-11.2224
▁mount	-11.2227
▁experiments	-11.2228
wear	-11.2229
iri	-11.2229
▁Recording	-11.2229
▁prestigious	-11.2231
▁leak	-11.2233
▁fence	-11.2234
agon	-11.2238
mani	-11.2238
/1	-11.2241
▁underwent	-11.2242
▁1:	-11.2246
▁experts	-11.2246
▁pace	-11.2248
▁1977,	-11.2249
▁Ted	-11.225
Pat	-11.2251
hya	-11.2252
▁explosion	-11.2254
▁Cop	-11.2255
▁Lancashire	-11.2256
▁Facebook	-11.2256
Air	-11.2256
uter	-11.2259
▁maps	-11.2259
▁1983.	-11.226
▁Amb	-11.2261
quet	-11.2264
medi	-11.2266
▁audition	-11.2266
▁finalist	-11.2267
▁seal	-11.2268
▁Store	-11.2268
Winner	-11.2269
▁revised	-11.227
uga	-11.2272
▁Boulevard	-11.2272
▁Bobby	-11.2273
▁pairs	-11.2273
guard	-11.2275
berry	-11.2277
▁regulation	-11.2278
Rock	-11.228
▁Bosnia	-11.2281
▁Stars	-11.2282
▁upcoming	-11.2288
▁refugees	-11.2288
▁saint	-11.2289
▁pu	-11.229
▁eventual	-11.2292
▁barrier	-11.2294
▁fin	-11.2295
▁perceived	-11.2297
link	-11.2298
▁venues	-11.2298
sberg	-11.2298
▁tourist	-11.2298
▁proportion	-11.2299
enne	-11.23
space	-11.2304
▁Morning	-11.2305
▁Rhine	-11.2306
▁Reform	-11.2307
▁2–0	-11.2307
Economy	-11.2309
▁Intelligence	-11.2311
▁reflected	-11.2312
igh	-11.2314
▁prevented	-11.2314
▁tire	-11.2314
▁1830	-11.2315
▁Fun	-11.2315
▁Fighter	-11.2318
▁irregular	-11.2321
pho	-11.2321
IG	-11.2322
▁81	-11.2322
luck	-11.2326
▁mixture	-11.2328
▁Jerry	-11.2328
tler	-11.2328
▁graphic	-11.233
▁1859	-11.233
▁nest	-11.2332
hm	-11.2332
▁Mani	-11.2332
▁lab	-11.2334
▁sending	-11.2334
▁plantation	-11.2334
▁shipping	-11.2337
chester	-11.2338
▁Literature	-11.2338
▁Tyr	-11.2338
▁Nord	-11.2338
▁predict	-11.2339
▁lease	-11.234
▁emotion	-11.2341
raz	-11.2342
.2%	-11.2343
▁convinced	-11.2343
Bal	-11.2344
Sir	-11.2344
▁withdraw	-11.2344
▁Much	-11.2346
▁filter	-11.2346
September	-11.2348
▁revival	-11.2351
tub	-11.2351
▁update	-11.2353
fon	-11.2354
▁Archive	-11.2358
:#	-11.2359
▁Sierra	-11.2362
▁pupils	-11.2363
▁lecture	-11.2363
Day	-11.2363
▁Rag	-11.2364
▁elaborate	-11.2365
▁Forum	-11.2368
▁trio	-11.2369
▁Say	-11.2372
▁knight	-11.2372
▁Lock	-11.2374
▁extends	-11.2375
▁resource	-11.2375
▁rapper	-11.2376
▁accurate	-11.2377
▁Train	-11.238
▁Cab	-11.238
▁Marco	-11.2383
▁Vir	-11.2383
▁Bass	-11.2383
▁diseases	-11.2384
▁transformation	-11.2385
▁contributor	-11.2386
▁interaction	-11.2387
▁Christianity	-11.239
▁manor	-11.239
▁Transportation	-11.2391
sher	-11.2392
▁fluid	-11.2392
▁bowl	-11.2393
▁teenager	-11.2394
▁fault	-11.2396
▁argues	-11.2397
▁Copenhagen	-11.2397
▁garrison	-11.2397
hydr	-11.2398
mara	-11.2401
▁implement	-11.2401
▁Rem	-11.2402
▁maintaining	-11.2403
▁Wor	-11.2404
▁prospect	-11.2407
count	-11.2408
RM	-11.2409
▁gaining	-11.2412
▁Steel	-11.2413
▁relating	-11.2414
owski	-11.2415
▁88	-11.2416
Operation	-11.2417
fre	-11.2418
Em	-11.2418
som	-11.2418
▁Arabia	-11.2419
cian	-11.2419
▁bases	-11.2421
▁lifetime	-11.2421
▁95	-11.2422
▁anime	-11.2424
▁lip	-11.2424
mut	-11.2426
▁Cardinal	-11.2426
▁Legislature	-11.2428
▁skill	-11.2428
▁impossible	-11.243
▁(8	-11.2431
eastern	-11.2433
tial	-11.2433
▁Bang	-11.2434
▁Maz	-11.2435
nagar	-11.2436
▁permanently	-11.2437
nom	-11.2437
Ku	-11.2437
uki	-11.2437
▁drain	-11.2439
ania	-11.244
▁attacking	-11.2441
▁Agriculture	-11.2441
Val	-11.2442
▁classroom	-11.2442
▁dense	-11.2443
oda	-11.2446
▁Ave	-11.2448
tiv	-11.2448
▁allegations	-11.2449
▁Ala	-11.2449
pil	-11.245
dimensional	-11.2452
▁client	-11.2453
dine	-11.2455
▁witness	-11.2457
▁1800	-11.2459
▁prisoner	-11.2462
/2	-11.2463
▁Sussex	-11.2465
▁zero	-11.2466
▁fossils	-11.2466
▁circulation	-11.2467
▁Newton	-11.2468
▁rib	-11.2469
iro	-11.247
▁hardware	-11.2473
uta	-11.2475
oto	-11.2476
▁(9	-11.2477
▁specimens	-11.2478
ckle	-11.2481
▁Krist	-11.2483
▁allies	-11.2484
▁integration	-11.2484
▁essentially	-11.2485
race	-11.2485
▁averaged	-11.2485
▁sounds	-11.2485
▁coll	-11.2486
▁abilities	-11.2486
-15	-11.2487
rest	-11.2487
▁Kee	-11.2488
ude	-11.2489
▁Oakland	-11.2491
gging	-11.2491
▁moths	-11.2491
▁Production	-11.2491
▁hometown	-11.2493
▁hindwings	-11.2493
▁snake	-11.2493
▁programmes	-11.2494
half	-11.2495
▁provision	-11.2497
▁Pie	-11.2498
▁79	-11.2503
▁Gy	-11.2503
▁Prague	-11.2504
▁Charter	-11.2504
▁commissioner	-11.2505
▁stops	-11.2506
▁slot	-11.2506
▁reverse	-11.2509
▁employer	-11.251
▁1857	-11.2513
▁Exhibition	-11.2514
▁renewed	-11.2515
Today	-11.2516
raw	-11.2517
igo	-11.2518
▁Those	-11.2519
▁sword	-11.2524
▁referee	-11.2525
Four	-11.2526
works	-11.2526
▁fulfill	-11.2527
▁theories	-11.2529
hit	-11.2535
yam	-11.2537
titled	-11.2537
▁ceiling	-11.2538
▁motorcycle	-11.2539
holder	-11.2542
▁depend	-11.2544
▁1978.	-11.2545
▁lit	-11.2547
▁resist	-11.2549
lice	-11.255
▁Indo	-11.2551
▁reforms	-11.2551
▁varies	-11.2555
▁voyage	-11.2555
October	-11.2556
-7	-11.2556
▁instructor	-11.2557
▁manages	-11.2557
mour	-11.2559
emon	-11.2561
▁ka	-11.2563
▁flower	-11.2565
▁speakers	-11.2569
▁Machine	-11.2569
▁proof	-11.257
▁referring	-11.257
cate	-11.2571
▁discrimination	-11.2571
▁taste	-11.2572
hana	-11.2573
▁tract	-11.2574
▁Kay	-11.2574
▁thesis	-11.2577
▁Dra	-11.2577
▁Rifle	-11.2579
▁smoke	-11.2579
▁Know	-11.2579
cit	-11.2579
–15	-11.2581
▁criteria	-11.2581
▁Phillips	-11.2581
▁Oslo	-11.2584
▁activists	-11.2585
▁upset	-11.2586
▁Armed	-11.2592
mund	-11.2593
▁offense	-11.2594
▁restore	-11.2594
chor	-11.2596
▁sweet	-11.2598
▁Secret	-11.2598
▁stored	-11.2599
2007	-11.2599
sub	-11.26
▁allegedly	-11.26
▁Blood	-11.2602
▁boss	-11.2603
▁habit	-11.2604
▁mainland	-11.2604
▁trick	-11.2607
▁Weekly	-11.2608
▁calendar	-11.2609
▁Ir	-11.2612
2006	-11.2614
▁gauge	-11.2617
▁empty	-11.2617
▁manifest	-11.2624
▁forcing	-11.2628
Mag	-11.2629
▁Members	-11.263
▁variation	-11.263
TR	-11.2633
▁Edwards	-11.2633
www	-11.2633
▁absolute	-11.2633
name	-11.2636
2017	-11.264
ige	-11.264
▁Roberts	-11.2641
court	-11.2643
▁Barb	-11.2643
▁rec	-11.2645
▁Nicola	-11.2645
▁Cabinet	-11.2645
▁Movie	-11.2645
▁Watson	-11.2645
vio	-11.2646
oso	-11.2647
▁Maj	-11.2649
▁Diamond	-11.265
▁defect	-11.2655
ifies	-11.2656
▁kit	-11.2656
uba	-11.2657
▁enters	-11.2657
▁sprint	-11.266
▁coincide	-11.2662
▁coins	-11.2664
five	-11.2664
▁1943,	-11.2666
pala	-11.2668
▁Golf	-11.2668
▁Hitler	-11.2669
▁1965,	-11.2672
▁elementary	-11.2672
station	-11.2675
How	-11.2683
▁Scr	-11.2684
IF	-11.2685
▁slaves	-11.2687
▁ni	-11.2688
▁hide	-11.2689
▁acquire	-11.2689
▁Editor	-11.2689
▁hop	-11.269
▁Manuel	-11.269
▁independently	-11.2691
tail	-11.2692
lish	-11.2692
▁targeted	-11.2694
▁rocks	-11.2694
▁LP	-11.2696
▁Vic	-11.2699
▁1974.	-11.2703
▁Kre	-11.2704
▁enemies	-11.2705
▁clo	-11.2708
▁Magic	-11.2709
Up	-11.271
▁Bath	-11.2711
▁demanded	-11.2711
▁succeed	-11.2714
▁topped	-11.2715
▁kitchen	-11.2715
Notes	-11.2715
▁Wallace	-11.2718
▁Flight	-11.2719
escu	-11.2719
▁worse	-11.272
▁1972.	-11.272
shin	-11.2722
▁Twitter	-11.2722
▁counterpart	-11.2724
▁poison	-11.273
comb	-11.2732
▁seriously	-11.2732
tral	-11.2733
▁Palestine	-11.2734
flow	-11.2736
▁complement	-11.2739
▁AP	-11.274
▁Manager	-11.2741
▁Mam	-11.2744
▁lord	-11.2748
▁Corn	-11.2748
fl	-11.2749
▁dependent	-11.2749
Politics	-11.2751
oul	-11.2752
▁mirror	-11.2756
hoe	-11.2757
▁organize	-11.2758
▁Congo	-11.2759
▁succession	-11.2759
▁entertain	-11.276
▁exploit	-11.276
phone	-11.276
▁Venezuela	-11.276
▁Than	-11.2762
▁Neil	-11.2762
▁Twenty	-11.2763
▁convince	-11.2764
▁reinforce	-11.2764
▁bath	-11.2765
▁samples	-11.2766
▁ghost	-11.2766
▁Ralph	-11.2768
roll	-11.2769
TI	-11.2771
▁Representative	-11.2771
▁tourism	-11.2774
▁1973.	-11.2775
▁tackle	-11.2777
▁gable	-11.2778
wise	-11.2782
▁Multi	-11.2783
▁remember	-11.2787
ucci	-11.2789
▁Ahmed	-11.2793
Par	-11.2793
▁Male	-11.2793
▁enlisted	-11.2793
December	-11.2796
▁SE	-11.2796
woman	-11.2799
▁Rovers	-11.2801
▁restrictions	-11.2803
odi	-11.2804
rain	-11.2805
Connor	-11.2806
▁Friends	-11.2807
▁pub	-11.2808
▁suffer	-11.281
▁Near	-11.281
bha	-11.281
xa	-11.2811
pressed	-11.2812
▁Ari	-11.2812
▁Reich	-11.2815
▁bearing	-11.2816
▁infant	-11.2817
▁faster	-11.2818
▁screenplay	-11.282
dorf	-11.282
▁thereby	-11.2821
▁releasing	-11.2821
vey	-11.2823
mount	-11.2828
▁chase	-11.2829
▁stint	-11.2829
▁Stefan	-11.283
▁achievement	-11.283
Among	-11.2832
▁wicket	-11.2833
▁Manila	-11.2834
cad	-11.2835
▁ordinary	-11.2836
▁87	-11.2836
▁2,000	-11.2837
▁Page	-11.2838
▁societies	-11.2839
▁exhaust	-11.2839
amo	-11.2842
▁server	-11.2843
wyn	-11.2844
▁Set	-11.2844
▁Lip	-11.2844
▁Cli	-11.2846
▁rally	-11.2847
▁enabled	-11.2848
▁improving	-11.2848
▁intermediate	-11.2848
may	-11.285
HC	-11.2851
tie	-11.2853
▁Put	-11.2854
RP	-11.2854
▁Triple	-11.2855
Home	-11.2858
▁Computer	-11.2863
▁Cou	-11.2863
xton	-11.2864
▁noise	-11.2865
▁Jefferson	-11.2866
▁organism	-11.2866
▁Ecuador	-11.2868
quire	-11.2869
▁Mut	-11.2869
lett	-11.2871
DE	-11.2871
Little	-11.2872
▁panels	-11.2872
VFL	-11.2872
▁batting	-11.2873
▁dia	-11.2873
▁$4	-11.2874
chang	-11.2874
licit	-11.2874
lap	-11.2877
turn	-11.2879
▁feminist	-11.2882
▁Otto	-11.2884
▁1.5	-11.2884
▁Larry	-11.2885
▁breast	-11.2886
▁LA	-11.2886
▁gall	-11.2888
▁Letter	-11.2892
ivo	-11.2893
▁McK	-11.2893
▁realized	-11.2894
mili	-11.2894
screen	-11.2896
▁topic	-11.2898
▁shifted	-11.2898
▁followers	-11.2898
▁Vid	-11.2904
January	-11.2904
▁autonomous	-11.2905
glo	-11.2905
rab	-11.2905
▁Audi	-11.2907
▁migration	-11.2907
▁Ruth	-11.2908
▁Vietnamese	-11.2908
▁Cuban	-11.2909
July	-11.2911
▁hospitals	-11.2914
cil	-11.2915
▁firing	-11.2916
lab	-11.2917
▁clinic	-11.2918
▁Quarter	-11.2919
▁consent	-11.292
▁Krishna	-11.2922
▁horn	-11.2922
▁diplomat	-11.2924
IL	-11.2924
▁(13	-11.2927
▁trustee	-11.2927
▁Financial	-11.2933
▁faces	-11.2934
8,000	-11.2934
▁honored	-11.2935
▁Wells	-11.2936
▁judicial	-11.2937
Record	-11.2937
▁1855	-11.2938
▁tro	-11.2942
▁politicians	-11.2943
▁readers	-11.2946
Research	-11.2946
▁valve	-11.2947
▁Bloom	-11.2948
general	-11.2949
▁amendment	-11.2949
hun	-11.295
▁psychological	-11.2952
▁terrorist	-11.2952
direct	-11.2952
ła	-11.2953
▁Prof	-11.2953
Bur	-11.2953
▁110	-11.2954
▁Net	-11.2957
rine	-11.2958
▁assert	-11.2959
▁Fla	-11.296
bble	-11.2961
▁$5	-11.2962
nor	-11.2963
Cat	-11.2964
▁icon	-11.2965
▁theoretical	-11.2966
▁handling	-11.2967
▁mag	-11.2968
▁clergy	-11.2969
▁mod	-11.2969
▁seized	-11.297
continu	-11.2973
▁AS	-11.2973
▁pregnant	-11.2974
▁Stage	-11.2975
azi	-11.2976
songwriter	-11.2976
▁requirement	-11.2977
▁conjunction	-11.2978
bet	-11.2979
ulf	-11.2979
▁Stoke	-11.298
▁Bolivia	-11.2981
▁Aires	-11.2983
makers	-11.2989
ario	-11.2992
▁bottle	-11.2993
▁Queens	-11.2994
▁Bee	-11.2995
▁observation	-11.2995
EN	-11.2997
▁fallen	-11.2999
gul	-11.2999
achi	-11.3
▁pad	-11.3002
nese	-11.3004
▁psycho	-11.3005
▁Revolutionary	-11.3005
▁Sean	-11.3006
▁portraits	-11.3007
▁Ernest	-11.3007
▁1975.	-11.3008
▁obvious	-11.3011
▁horizontal	-11.3011
▁Georgian	-11.3011
▁literacy	-11.3013
camp	-11.3013
three	-11.3015
▁shield	-11.3016
▁impressive	-11.3019
▁separation	-11.3021
▁Rep	-11.3024
▁pounds	-11.3029
▁1981.	-11.3029
▁rough	-11.303
▁NC	-11.303
▁provisions	-11.303
▁Devil	-11.3033
▁banking	-11.3033
FF	-11.3033
▁Josh	-11.3035
▁1976.	-11.3036
stage	-11.3036
▁chapters	-11.3036
▁Conservation	-11.3037
ière	-11.3038
▁remembered	-11.3038
▁divorce	-11.3039
iser	-11.304
▁demon	-11.3042
tour	-11.3043
▁Por	-11.3044
▁Secondary	-11.3047
▁pitched	-11.305
▁shorter	-11.305
insky	-11.3051
▁neighbouring	-11.3052
ival	-11.3055
▁stationed	-11.3057
▁Edition	-11.3058
▁Blake	-11.306
▁width	-11.3061
ume	-11.3062
▁extract	-11.3066
▁civilians	-11.3067
dging	-11.3068
▁1854	-11.3068
▁Dominican	-11.3069
▁mansion	-11.307
▁Swan	-11.3071
▁Environmental	-11.3073
▁repeatedly	-11.3073
▁customer	-11.3074
Port	-11.3075
▁referendum	-11.3075
▁immigration	-11.3078
▁fixture	-11.3078
▁minimal	-11.3079
▁Kate	-11.3079
▁pursued	-11.3079
tron	-11.3083
ager	-11.3083
▁reveal	-11.3084
▁journals	-11.3084
▁successive	-11.3085
anger	-11.3087
"|	-11.3087
ously	-11.3088
Ten	-11.3088
▁dancer	-11.3089
▁pure	-11.309
▁neighboring	-11.309
chard	-11.3091
▁zoo	-11.3092
▁bridges	-11.3093
▁decree	-11.3093
Old	-11.3095
Richard	-11.3095
▁Cru	-11.3097
▁dealer	-11.3097
tempo	-11.3098
▁Lisa	-11.3098
▁promised	-11.31
plan	-11.3101
▁confused	-11.3101
▁doctors	-11.3104
▁bullet	-11.3104
lived	-11.3105
▁depot	-11.3106
▁rotation	-11.3107
▁1971.	-11.3109
▁(11	-11.3109
▁wore	-11.311
▁Right	-11.311
▁commentator	-11.311
Il	-11.311
▁Primary	-11.3112
2005	-11.3112
▁nationwide	-11.3114
OP	-11.3115
▁fortune	-11.3118
▁Nature	-11.3118
▁withdrawn	-11.3119
walk	-11.312
wed	-11.312
itarian	-11.3126
▁qua	-11.3126
▁Surrey	-11.3126
▁nationally	-11.3133
▁Foster	-11.3134
▁statements	-11.3135
complete	-11.3135
ograph	-11.3136
▁brings	-11.3138
writer	-11.3139
▁2014–15	-11.314
▁chorus	-11.3141
▁investors	-11.3141
▁tasks	-11.3142
Each	-11.3146
generation	-11.315
▁essay	-11.3154
vig	-11.3157
▁findings	-11.3159
▁competitors	-11.316
Para	-11.3161
▁clip	-11.3162
iano	-11.3162
vail	-11.3164
▁Kai	-11.3165
▁divide	-11.3165
rating	-11.3168
NL	-11.3168
▁coffee	-11.3168
▁clerk	-11.3168
▁Clarke	-11.317
pie	-11.3171
▁Delta	-11.3173
▁requiring	-11.3173
▁96	-11.3174
▁1964,	-11.3175
▁Esp	-11.3177
▁Article	-11.3178
▁suspected	-11.3179
Friend	-11.318
chron	-11.3183
▁Eurovision	-11.3186
▁Rule	-11.3189
▁Laboratory	-11.3189
▁extinct	-11.319
▁assume	-11.3191
exp	-11.3191
▁survivors	-11.3192
▁cylinder	-11.3194
#	-11.3194
▁handled	-11.3197
▁routine	-11.3199
▁homo	-11.3201
▁carved	-11.3203
▁Renaissance	-11.3207
▁receptor	-11.3209
▁travels	-11.3209
▁Cow	-11.321
▁achievements	-11.321
prise	-11.3211
▁bike	-11.3211
▁fantasy	-11.3211
▁Friedrich	-11.3211
▁1977.	-11.3212
▁duration	-11.3213
▁Lac	-11.3214
▁biography	-11.3215
▁ft	-11.3216
▁Arnold	-11.3217
▁Delaware	-11.3219
imi	-11.322
ennial	-11.3222
▁tours	-11.3222
▁Kun	-11.3223
center	-11.3223
▁Dev	-11.3226
▁Scha	-11.3227
▁Lutheran	-11.3228
▁Bour	-11.3228
appa	-11.323
▁transformed	-11.3232
▁educator	-11.3234
▁IT	-11.3236
▁transaction	-11.3237
▁rivals	-11.3239
TM	-11.3241
▁Hus	-11.3242
▁Alt	-11.3243
▁fewer	-11.3243
eni	-11.3245
▁strengthen	-11.3247
▁crack	-11.3247
listed	-11.3247
▁monitoring	-11.3249
after	-11.3251
scope	-11.3252
quar	-11.3252
rail	-11.3254
▁siblings	-11.3254
▁invitation	-11.3255
▁quiet	-11.3262
rance	-11.3264
▁oxygen	-11.3264
▁Outstanding	-11.3265
▁governing	-11.3265
▁Buenos	-11.3267
hid	-11.3267
▁photos	-11.3268
▁severely	-11.3268
Roman	-11.3268
ło	-11.3271
▁sacrifice	-11.3272
▁vol	-11.3272
▁84	-11.3272
utt	-11.3274
LL	-11.3275
LE	-11.3276
▁admission	-11.3278
▁CF	-11.3278
▁shallow	-11.3281
▁inhabited	-11.3282
▁diversity	-11.3282
Den	-11.3283
▁cream	-11.3285
▁attain	-11.3285
▁Ara	-11.3286
▁Until	-11.3286
▁1939,	-11.3286
▁generations	-11.3287
mod	-11.3288
European	-11.3288
▁Milwaukee	-11.3288
▁concepts	-11.329
Cap	-11.3292
▁pursuit	-11.3293
▁Malta	-11.3293
▁farmer	-11.3294
▁interception	-11.3296
▁drawings	-11.3297
udge	-11.3298
enti	-11.3301
▁Eagle	-11.3305
▁reconstruction	-11.3307
rav	-11.3308
▁punishment	-11.3311
▁confront	-11.3312
▁slip	-11.3315
▁understood	-11.3315
▁array	-11.3316
▁Liberty	-11.3317
▁Continental	-11.3317
nett	-11.3317
lah	-11.3318
▁Ellis	-11.3318
▁revolutionary	-11.3318
▁procedures	-11.3319
speaking	-11.3319
ovo	-11.332
That	-11.332
▁rent	-11.332
gni	-11.3321
▁86	-11.3324
▁Yama	-11.3324
▁sky	-11.3324
▁Circle	-11.3326
▁automatically	-11.3327
▁Raven	-11.3331
▁Fat	-11.3332
▁cabin	-11.3334
Sam	-11.3335
▁Columbus	-11.3336
▁recruit	-11.3336
hari	-11.3337
▁Pearl	-11.3337
–14	-11.3338
2018	-11.3338
ente	-11.334
▁authorized	-11.3341
▁suddenly	-11.3341
ution	-11.3341
Kar	-11.3342
▁emerging	-11.3344
▁possess	-11.3344
rator	-11.3345
▁Fourth	-11.3348
▁1858	-11.3349
▁1966,	-11.335
▁syndrome	-11.3352
Green	-11.3352
▁workshops	-11.3353
Personnel	-11.3353
▁Montgomery	-11.3354
▁Palmer	-11.3356
Frank	-11.3356
▁identification	-11.3357
▁drill	-11.3357
▁advertisement	-11.3358
▁philosopher	-11.3361
▁Uruguay	-11.3362
▁exploration	-11.3364
▁personally	-11.3364
von	-11.3365
▁impressed	-11.3366
▁socialist	-11.3367
built	-11.3369
▁airing	-11.3369
▁encountered	-11.3371
hart	-11.3374
▁journalists	-11.3375
▁strict	-11.3376
▁battles	-11.338
▁Alpha	-11.3381
▁Northwest	-11.3382
▁1856	-11.3383
▁Roosevelt	-11.3393
▁creature	-11.3393
▁Clare	-11.3395
fill	-11.3396
▁pm	-11.3396
▁Players	-11.3397
Ly	-11.3397
Draw	-11.3401
HP	-11.3403
▁delegation	-11.3403
▁travelling	-11.3405
▁Flying	-11.341
Tom	-11.3412
▁considering	-11.3412
▁Eddie	-11.3412
nai	-11.3416
▁Bin	-11.3417
▁fortress	-11.3417
White	-11.3419
▁pond	-11.3419
▁Qing	-11.3419
▁explanation	-11.3421
▁rhythm	-11.3421
▁Bond	-11.3422
▁turbine	-11.3424
▁carriage	-11.3424
▁89	-11.3425
left	-11.3425
▁journalism	-11.3427
▁doctrine	-11.3429
▁Student	-11.343
zzi	-11.3431
▁Aaron	-11.3432
–12	-11.3433
▁Hour	-11.3434
WF	-11.3434
▁Ton	-11.3434
▁Support	-11.3437
market	-11.3437
▁psychology	-11.3439
▁teeth	-11.344
▁Next	-11.344
operative	-11.3441
cco	-11.3441
etz	-11.3442
▁Nancy	-11.3443
▁vault	-11.3443
posing	-11.3445
▁conviction	-11.3453
▁situations	-11.3457
▁Speaker	-11.3457
ident	-11.3459
▁Pay	-11.346
▁Cardiff	-11.346
▁Tun	-11.3461
▁Xu	-11.3462
sbury	-11.3465
▁CC	-11.3467
▁1852	-11.3467
▁varied	-11.3468
▁seeds	-11.3471
Ve	-11.3472
▁marble	-11.3474
▁protesters	-11.3475
▁crops	-11.3477
▁molecular	-11.3483
▁Higher	-11.3485
▁Metal	-11.3488
▁ballet	-11.3489
Cam	-11.3489
▁democratic	-11.3491
▁punk	-11.3493
▁stolen	-11.3493
▁dubbed	-11.3494
▁Legion	-11.3494
▁commentary	-11.3499
▁eat	-11.3503
November	-11.3504
signed	-11.3504
▁Reed	-11.3504
stat	-11.3506
▁Distinguished	-11.3507
▁lectures	-11.351
naut	-11.3511
▁pier	-11.3513
Of	-11.3518
▁Brussels	-11.352
▁ferry	-11.3521
▁1967.	-11.3521
▁interpret	-11.3522
Head	-11.3522
▁Serie	-11.3523
NI	-11.3524
▁divorced	-11.3526
▁memoir	-11.3527
▁Pakistani	-11.3532
▁democracy	-11.3534
-21	-11.3535
▁acclaim	-11.3535
▁Chal	-11.3536
▁confidence	-11.3538
▁Abraham	-11.3538
▁Vermont	-11.354
▁preliminary	-11.3541
best	-11.3541
Climate	-11.3542
▁automobile	-11.3543
▁welfare	-11.3543
Cal	-11.3543
▁lineup	-11.3544
first	-11.3546
▁revenge	-11.3548
▁conducting	-11.3549
Upon	-11.3549
Pan	-11.3552
▁privilege	-11.3554
▁upgraded	-11.3554
date	-11.3554
▁Mind	-11.3555
▁prop	-11.3556
▁autumn	-11.3556
▁Spencer	-11.3556
▁Environment	-11.3558
▁Solomon	-11.3559
▁striking	-11.356
▁Brit	-11.356
▁pilots	-11.356
▁Gha	-11.3562
iller	-11.3563
▁arrangements	-11.3567
▁developer	-11.357
agan	-11.3573
▁Abdul	-11.3575
▁privately	-11.3579
cke	-11.358
2020	-11.3582
▁Shield	-11.3583
▁Paulo	-11.3583
▁Nevertheless	-11.3585
▁curriculum	-11.3588
pm	-11.3591
ão	-11.3591
▁reserves	-11.3592
▁Westminster	-11.3593
French	-11.3593
▁Name	-11.3595
▁Guards	-11.3597
▁Olympia	-11.3598
▁Rap	-11.3599
▁Tommy	-11.3602
▁Pel	-11.3602
▁guidance	-11.3604
▁proceeded	-11.3607
▁Artists	-11.3607
USA	-11.3608
▁Dame	-11.3609
▁Pine	-11.361
▁resign	-11.361
EF	-11.361
▁registration	-11.3611
Fu	-11.3615
▁examine	-11.3616
▁Adventure	-11.3617
▁lighting	-11.3618
▁Cox	-11.3618
▁Airlines	-11.3619
▁girlfriend	-11.362
▁beneath	-11.3622
▁parameter	-11.3623
▁performers	-11.3623
▁Nathan	-11.3624
grade	-11.3625
▁XI	-11.3629
Die	-11.3631
▁Marvel	-11.3631
▁comedian	-11.3631
eus	-11.3632
▁Lucas	-11.3632
▁Hurricane	-11.3632
▁massacre	-11.3633
▁expanding	-11.3633
▁correspond	-11.3635
▁potentially	-11.3636
▁pastor	-11.3639
▁83	-11.3639
▁scorer	-11.3641
▁1918,	-11.3644
▁Titan	-11.3647
hwa	-11.3655
▁dogs	-11.3662
tai	-11.3663
▁tear	-11.3663
▁Amendment	-11.3664
▁criticised	-11.3669
▁Eight	-11.3669
▁manufacturers	-11.3669
▁concentrated	-11.367
College	-11.3671
▁proceed	-11.3673
▁Franz	-11.3675
▁variations	-11.3675
▁revolt	-11.3676
loss	-11.3677
inda	-11.3677
2019	-11.3677
▁Coll	-11.3677
qi	-11.368
▁Eve	-11.3681
▁runway	-11.3682
▁1968.	-11.3685
▁relegation	-11.3688
▁bars	-11.3689
▁1969.	-11.3689
enter	-11.3689
Sub	-11.369
Dan	-11.369
▁councillor	-11.369
▁marginal	-11.3694
2004	-11.3696
ession	-11.3696
▁Drama	-11.3697
▁electron	-11.3701
▁messages	-11.3701
▁Episcopal	-11.3701
▁Testament	-11.3701
▁Lithuania	-11.3702
▁2013–14	-11.3703
▁Harold	-11.3703
▁Concert	-11.3705
▁Bala	-11.3707
MG	-11.3709
▁Spa	-11.371
Za	-11.3711
▁radiation	-11.3712
aux	-11.3712
kat	-11.3716
▁1963,	-11.3717
Construction	-11.3719
▁cuts	-11.372
iform	-11.372
▁Gur	-11.372
vol	-11.3721
▁adjust	-11.3724
▁acknowledged	-11.3726
▁Presbyterian	-11.3728
lew	-11.373
▁91	-11.3731
pent	-11.3734
▁Advisory	-11.3734
▁Direct	-11.3736
▁Reading	-11.3739
▁Contest	-11.3739
Structure	-11.3741
▁aesthetic	-11.3741
▁tornado	-11.3742
amma	-11.3744
▁Poll	-11.3747
More	-11.3747
▁entries	-11.3747
▁hamlet	-11.3747
▁View	-11.3747
CW	-11.3748
MR	-11.3749
▁Serb	-11.3751
▁assembled	-11.3751
▁Micro	-11.3752
▁Ahmad	-11.3752
▁verb	-11.3754
▁innovative	-11.3755
▁Left	-11.3755
▁similarly	-11.3758
Va	-11.376
▁orientation	-11.3765
▁boost	-11.3766
colo	-11.3767
▁binding	-11.3767
▁Principal	-11.3767
▁altar	-11.3768
▁Morocco	-11.3771
▁bulk	-11.3771
▁Curtis	-11.3772
▁heading	-11.3775
corp	-11.3776
▁Shakespeare	-11.3776
▁supporter	-11.3776
▁confirm	-11.3781
▁survival	-11.3781
▁Walk	-11.3782
wheel	-11.3784
▁interact	-11.3786
▁indeed	-11.3786
▁Gru	-11.3786
hole	-11.3787
nian	-11.3788
CF	-11.3788
▁Cavalry	-11.3792
▁Architecture	-11.3795
▁Path	-11.3795
1990	-11.3796
▁upgrade	-11.3796
▁audiences	-11.3797
▁backing	-11.3797
▁Number	-11.3799
▁Nag	-11.38
▁Cerambycidae	-11.38
▁Ferdinand	-11.38
▁barrel	-11.38
▁basal	-11.3801
▁Sau	-11.3802
pens	-11.3805
▁lobby	-11.3806
▁Form	-11.3808
selling	-11.3812
▁staged	-11.3816
seat	-11.3818
▁Broad	-11.3818
▁Finals	-11.382
▁surgeon	-11.3821
▁borough	-11.3821
▁sailing	-11.3822
▁Newport	-11.3823
▁onwards	-11.3823
▁baron	-11.3824
▁Walt	-11.3825
▁breaks	-11.3826
▁Abd	-11.3826
▁aggressive	-11.3827
▁Gardens	-11.3831
▁Enterprise	-11.3833
Round	-11.3833
▁Slav	-11.3833
fel	-11.3833
▁displays	-11.3834
▁struggled	-11.3843
▁senator	-11.3844
rma	-11.3845
qa	-11.3845
▁Agreement	-11.3846
▁excavation	-11.3846
yon	-11.3847
▁fossil	-11.3847
wel	-11.3848
▁Mei	-11.3849
▁consensus	-11.3849
fund	-11.3851
▁Gospel	-11.3852
▁Rush	-11.3852
▁associations	-11.3854
▁Rou	-11.3855
▁Twin	-11.3855
▁founders	-11.3855
LS	-11.3856
▁watching	-11.3856
▁Princeton	-11.3856
▁showcase	-11.3857
▁2:	-11.3858
▁Vil	-11.386
Vol	-11.3862
▁dinner	-11.3862
Luc	-11.3862
▁merely	-11.3862
▁Travel	-11.3863
Great	-11.3864
Land	-11.3865
▁Filipino	-11.3865
▁Thunder	-11.3866
▁tap	-11.3867
▁amounts	-11.3869
Louis	-11.3871
force	-11.3872
▁rushing	-11.3873
▁impression	-11.3873
▁Spe	-11.3879
Hy	-11.3879
▁suggesting	-11.3883
▁Emil	-11.3886
▁Chase	-11.3887
▁mechanic	-11.3887
nant	-11.3887
▁Rice	-11.3888
▁blend	-11.3889
▁grants	-11.3891
icide	-11.3892
▁Raymond	-11.3893
▁hoped	-11.3893
▁GT	-11.3893
_4	-11.3895
Plan	-11.3896
▁Tree	-11.3897
stand	-11.39
▁module	-11.39
▁deeply	-11.3902
pati	-11.3903
▁700	-11.3904
▁Read	-11.3905
▁Yar	-11.3908
dou	-11.391
▁sail	-11.3911
▁Capitol	-11.3911
tem	-11.3913
▁hung	-11.3913
around	-11.3914
▁Currently	-11.3916
▁101	-11.3919
text	-11.3922
▁imprisonment	-11.3922
▁HIV	-11.3927
teau	-11.393
▁peasant	-11.393
▁kills	-11.3931
▁Cardinals	-11.3931
▁mate	-11.3932
Both	-11.3933
▁Hull	-11.3935
green	-11.3935
▁Throughout	-11.3937
▁compensation	-11.3938
▁swing	-11.3942
shima	-11.3946
▁Indianapolis	-11.3947
Er	-11.3949
▁Tampa	-11.3949
wald	-11.3949
▁Honour	-11.3949
Major	-11.395
▁Sep	-11.3953
Sur	-11.3953
▁Brunswick	-11.3954
▁honours	-11.3955
▁Mé	-11.3955
▁Manitoba	-11.3957
onym	-11.3958
Free	-11.3958
▁rounded	-11.3958
ledge	-11.3959
phan	-11.3959
▁Pier	-11.396
▁torture	-11.3961
tang	-11.3961
-11	-11.3961
är	-11.3962
▁1851	-11.3962
▁lessons	-11.3962
▁sailor	-11.3963
UP	-11.3965
formula	-11.3969
▁exam	-11.397
▁Cent	-11.397
▁athletics	-11.3972
▁MC	-11.3973
..."	-11.3975
▁92	-11.3977
released	-11.3978
▁quit	-11.3978
▁presenter	-11.3978
▁Brighton	-11.3979
▁Todd	-11.398
▁inclusion	-11.3981
OL	-11.3984
7,000	-11.3986
▁publish	-11.3987
▁circular	-11.3987
Election	-11.3987
▁Still	-11.3988
▁accomplish	-11.399
mot	-11.399
▁conferences	-11.3991
▁Sudan	-11.3992
Mont	-11.3992
▁belong	-11.3994
stadt	-11.3995
▁Engineers	-11.3995
▁beliefs	-11.3996
Saint	-11.3997
▁Pit	-11.3999
▁porch	-11.3999
▁1946,	-11.4002
▁Volunteer	-11.4004
▁Tak	-11.4006
▁Albania	-11.4008
▁wagon	-11.4008
▁creek	-11.4008
▁feels	-11.4009
▁Sak	-11.4011
▁SP	-11.4011
▁ministers	-11.4014
▁wreck	-11.4015
▁soap	-11.4015
▁altered	-11.4015
pid	-11.4018
▁sits	-11.402
▁Kru	-11.4022
wich	-11.4025
ovsky	-11.4026
▁Double	-11.4026
▁Provincial	-11.4031
▁breath	-11.4031
clusive	-11.4033
▁je	-11.4035
solv	-11.4036
▁Lithuanian	-11.4036
▁Colonial	-11.4039
▁semifinals	-11.4043
▁citizenship	-11.4044
▁Vladimir	-11.4046
ester	-11.4047
▁nineteenth	-11.4048
cott	-11.4049
▁Lamb	-11.4051
laus	-11.4052
▁Pomeranian	-11.4053
▁promotional	-11.4053
▁boxing	-11.4053
▁Bah	-11.4054
▁maintains	-11.4055
▁Sabha	-11.4055
▁hurricane	-11.4056
2002	-11.4056
▁bold	-11.4057
▁mammal	-11.4058
girl	-11.4059
▁Citizen	-11.4061
▁Neo	-11.4061
▁warrant	-11.4061
Good	-11.4061
▁fairly	-11.4064
▁Davies	-11.4065
science	-11.4067
▁quoted	-11.407
▁entity	-11.407
▁watched	-11.4071
▁relatives	-11.4074
▁sack	-11.4075
cel	-11.4075
▁preference	-11.4077
▁1965.	-11.4077
▁50%	-11.4077
▁Bros	-11.4079
▁hook	-11.4081
▁dorsal	-11.4081
oxide	-11.4082
British	-11.4083
▁riders	-11.4084
▁protocol	-11.4086
Similar	-11.4087
beck	-11.4088
VC	-11.4089
▁Rapid	-11.4091
▁lifestyle	-11.4091
▁Ng	-11.4091
yev	-11.4092
Arm	-11.4093
dhi	-11.4093
▁clothes	-11.4094
Because	-11.4094
drome	-11.4095
▁scout	-11.4096
▁Hon	-11.4096
Van	-11.4097
▁colonel	-11.4097
▁Safety	-11.4097
osh	-11.4098
▁suggestion	-11.41
▁Laura	-11.4103
heart	-11.4104
▁Leg	-11.4106
▁Emma	-11.4107
▁fraud	-11.411
rise	-11.411
▁Vit	-11.411
pay	-11.4111
▁refuses	-11.4116
▁Actress	-11.4116
polit	-11.4117
bourne	-11.412
▁fold	-11.4121
▁1962,	-11.4121
▁Resources	-11.4123
-14	-11.4124
▁hosting	-11.4125
▁Edmund	-11.4125
▁react	-11.4129
▁libraries	-11.4133
▁suppress	-11.4137
rose	-11.4137
▁guy	-11.4137
▁flash	-11.4139
▁Wool	-11.4139
▁trailer	-11.4139
named	-11.4141
February	-11.4142
▁Agu	-11.4143
GB	-11.4145
▁Kali	-11.4145
▁Bul	-11.4147
▁Consul	-11.4147
▁harvest	-11.415
▁Sud	-11.4151
Use	-11.4151
▁Frankfurt	-11.4153
▁matrix	-11.4153
▁lakes	-11.4153
▁spare	-11.4154
▁furniture	-11.4156
▁enforce	-11.416
▁Kho	-11.4162
▁collecting	-11.4163
tip	-11.4163
▁preparing	-11.4164
▁aftermath	-11.4164
▁1849	-11.4165
▁Annual	-11.4165
void	-11.4166
▁comprising	-11.4167
▁graphics	-11.4167
▁1847	-11.4171
▁colonies	-11.4173
frame	-11.4174
▁93	-11.4174
▁Torre	-11.4176
▁militant	-11.4178
▁1961,	-11.4179
▁memories	-11.4181
▁coin	-11.4181
▁interviewed	-11.4181
▁Viv	-11.4183
▁geographical	-11.4185
700	-11.4187
▁shed	-11.4188
▁flooding	-11.4189
▁genes	-11.4192
▁Prison	-11.4192
▁PlayStation	-11.4197
lier	-11.4198
TF	-11.4199
▁Haiti	-11.42
rank	-11.4204
▁bassist	-11.4205
ija	-11.4205
▁metropolitan	-11.4209
ador	-11.4214
▁allocated	-11.4215
▁scales	-11.4215
▁bowling	-11.4218
Week	-11.422
lene	-11.4222
Joseph	-11.4223
fal	-11.4223
▁Bennett	-11.4225
▁MW	-11.4225
▁Bran	-11.4226
▁Lodge	-11.4226
▁disappeared	-11.4226
▁grades	-11.4227
▁breach	-11.4228
▁Saskatchewan	-11.4231
▁Tax	-11.4231
▁investigated	-11.4232
▁accomplished	-11.4233
ended	-11.4235
both	-11.4235
corn	-11.4236
▁Universe	-11.4239
tling	-11.424
▁accordance	-11.424
lur	-11.4241
▁Grande	-11.4244
▁depicting	-11.4245
▁dying	-11.4245
zie	-11.4246
▁crush	-11.4248
▁Born	-11.4249
▁fiber	-11.4252
▁workshop	-11.4253
MB	-11.4257
▁Calgary	-11.4259
▁thriller	-11.426
▁Santo	-11.4263
liv	-11.4264
▁Deep	-11.4265
▁Rosen	-11.4266
Recent	-11.4266
bby	-11.4267
MD	-11.4267
boro	-11.4268
▁preservation	-11.427
▁deposits	-11.4271
▁AI	-11.4274
▁interval	-11.4274
▁basement	-11.4274
▁withdrawal	-11.4274
vice	-11.4275
▁operators	-11.4275
▁inches	-11.4275
▁HD	-11.4276
▁fate	-11.4277
▁screening	-11.4277
boo	-11.4281
▁Semi	-11.4281
▁hectares	-11.4282
▁sediment	-11.4282
human	-11.4282
▁vital	-11.4282
▁knock	-11.4282
▁mural	-11.4282
▁subdivision	-11.4282
▁healthcare	-11.4283
▁ornament	-11.4283
clo	-11.4284
▁continent	-11.4284
▁researcher	-11.4286
▁Corp	-11.4286
▁hind	-11.4287
▁ammunition	-11.4287
▁portfolio	-11.4287
hil	-11.429
▁undertaken	-11.429
▁practiced	-11.4294
▁Comm	-11.4295
Journal	-11.4297
▁Geneva	-11.4297
▁3,000	-11.4299
▁novelist	-11.4299
▁Maurice	-11.4299
▁plates	-11.4301
quer	-11.4301
▁ST	-11.4302
rent	-11.4303
▁Electronic	-11.4303
Mill	-11.4304
▁meal	-11.4305
mix	-11.4306
▁Emmy	-11.4308
▁learns	-11.4308
▁Louise	-11.4308
lop	-11.4311
▁Kingston	-11.4312
▁vicinity	-11.4313
▁limestone	-11.4316
Miss	-11.4317
Smith	-11.4317
▁Nintendo	-11.4318
▁VII	-11.4318
▁violin	-11.4323
▁ports	-11.4325
lou	-11.4327
oga	-11.4328
▁Def	-11.433
▁comics	-11.4331
UC	-11.4331
kur	-11.4332
▁interim	-11.4332
▁herb	-11.4333
▁ramp	-11.4336
▁Denis	-11.4336
▁solely	-11.4339
▁mature	-11.434
▁assassination	-11.4341
▁bicycle	-11.4341
▁moon	-11.4342
tsch	-11.4344
▁Fil	-11.4344
won	-11.4346
earn	-11.4346
rgy	-11.4347
▁Globe	-11.4351
▁stability	-11.4352
▁intent	-11.4356
mple	-11.4358
lated	-11.4358
augh	-11.436
▁occasional	-11.436
▁[...]	-11.4361
spor	-11.4361
▁Doug	-11.4362
wave	-11.4364
▁wheels	-11.4364
▁Sullivan	-11.4367
mac	-11.4367
▁distant	-11.4368
mill	-11.4369
lom	-11.4369
▁missionary	-11.437
▁specification	-11.4371
▁Publishing	-11.4372
Bel	-11.4372
▁premises	-11.4373
Impact	-11.4374
▁Get	-11.4375
▁1500	-11.4376
▁secular	-11.4376
eff	-11.4376
▁stall	-11.4377
▁Peak	-11.4378
–13	-11.4379
PG	-11.4381
▁Change	-11.4382
arra	-11.4383
▁cleared	-11.4384
Just	-11.4385
▁Nigerian	-11.4388
▁gross	-11.439
▁Dha	-11.4391
izer	-11.4392
▁Kri	-11.4392
▁imposed	-11.4393
▁thrown	-11.4393
▁signals	-11.4396
▁warfare	-11.4398
▁2.5	-11.4398
▁130	-11.4399
▁Zhang	-11.44
▁fees	-11.4402
▁contractor	-11.4403
case	-11.4405
Schedule	-11.4406
▁Coalition	-11.4409
▁unexpected	-11.4415
mol	-11.4421
▁spur	-11.4422
▁Amy	-11.4429
▁Canterbury	-11.4429
▁passion	-11.443
▁threats	-11.4433
▁Interior	-11.4435
▁Belgrade	-11.4435
▁Official	-11.4437
▁regardless	-11.4437
▁wards	-11.4438
phen	-11.444
wei	-11.4441
▁Sul	-11.4441
▁Danny	-11.4443
▁ruins	-11.4444
▁Fau	-11.4445
▁Burg	-11.4445
▁blocked	-11.4447
▁Chess	-11.4447
▁Steam	-11.4448
kor	-11.4448
lder	-11.4449
▁vein	-11.4449
▁Pomerania	-11.4449
door	-11.445
grove	-11.4452
▁1846	-11.4455
▁tender	-11.4456
dai	-11.446
▁ESPN	-11.4461
▁Heights	-11.4463
▁membrane	-11.4463
▁Knights	-11.4466
▁crop	-11.447
▁Cyprus	-11.4475
CU	-11.4475
▁collapsed	-11.448
hine	-11.4482
▁100,000	-11.4484
▁involve	-11.4485
▁capabilities	-11.4486
▁trophy	-11.4487
cost	-11.4488
▁Jacques	-11.449
▁mentions	-11.4491
▁talking	-11.4491
▁easier	-11.4492
▁nationalist	-11.4493
▁supervision	-11.4493
▁lying	-11.4493
▁pink	-11.4494
▁commit	-11.4495
▁scan	-11.4495
▁Come	-11.4496
combe	-11.4497
▁André	-11.45
▁manuscripts	-11.4501
▁Break	-11.4501
▁Basin	-11.4501
▁arc	-11.4503
▁renovated	-11.4504
▁Relations	-11.4504
▁naming	-11.4506
hom	-11.4507
Soundtrack	-11.4509
Cre	-11.4509
uous	-11.4509
▁Fernando	-11.4509
▁phenomenon	-11.4509
▁decreased	-11.4511
▁Holding	-11.4512
▁parade	-11.4513
▁3–1	-11.4513
▁streams	-11.4513
▁Philosophy	-11.4515
▁hub	-11.4516
oj	-11.4516
▁dies	-11.4516
BR	-11.4517
HO	-11.4517
dress	-11.4521
partisan	-11.4521
▁Chapter	-11.4522
▁interactions	-11.4525
▁Haz	-11.4525
▁adoption	-11.4532
static	-11.4533
▁depicts	-11.4533
▁breeding	-11.4535
▁Wel	-11.4536
child	-11.4539
▁convey	-11.454
rol	-11.4542
▁caps	-11.4543
▁97	-11.4544
▁Sang	-11.4545
too	-11.4546
▁strategies	-11.4547
▁Sco	-11.4547
▁rider	-11.4547
▁airfield	-11.4548
▁paying	-11.4551
▁diploma	-11.4552
illon	-11.4553
▁villain	-11.4554
▁5,000	-11.4555
GC	-11.4556
▁bypass	-11.4557
district	-11.4558
▁Folk	-11.4558
▁evident	-11.4559
▁cotton	-11.4559
▁rainfall	-11.4559
▁trainer	-11.456
skaya	-11.4562
▁detect	-11.4565
▁Carey	-11.4565
▁acclaimed	-11.4565
▁ballad	-11.4567
▁Shore	-11.4568
▁Scientific	-11.457
▁burn	-11.4571
▁bears	-11.4572
SV	-11.4572
▁Campus	-11.4574
▁cow	-11.4574
▁BCE	-11.4575
Whi	-11.4575
▁Based	-11.4576
▁Webb	-11.4576
▁transported	-11.4577
▁invented	-11.4578
▁Mario	-11.4578
▁Fellowship	-11.4579
▁1853	-11.4579
▁stronger	-11.4579
TT	-11.458
▁Got	-11.4581
▁neighbourhood	-11.4582
▁crater	-11.4582
▁Gamb	-11.4583
▁moments	-11.4585
tica	-11.4587
▁Planning	-11.4587
▁Dynasty	-11.4588
▁Pon	-11.4588
pyr	-11.4588
▁closest	-11.4589
published	-11.4589
git	-11.4592
▁Sz	-11.4592
▁accommodation	-11.4596
▁communicate	-11.4597
▁Bryan	-11.4598
▁Tunisia	-11.46
▁Yellow	-11.4602
▁ultra	-11.4603
▁unclear	-11.4605
▁rectangular	-11.4605
▁foster	-11.4605
▁Wan	-11.4606
▁casting	-11.4609
▁priests	-11.461
▁bankruptcy	-11.4611
▁fat	-11.4612
▁Writing	-11.4613
iger	-11.4614
▁unveiled	-11.4614
toria	-11.4614
▁Made	-11.4615
▁98	-11.4615
People	-11.4615
▁Miguel	-11.4617
▁defendant	-11.4618
FO	-11.4619
Blue	-11.4619
Text	-11.4619
▁perception	-11.4619
▁armies	-11.4623
temp	-11.4626
▁commanding	-11.4627
▁expelled	-11.4628
Bre	-11.4629
leigh	-11.463
pac	-11.463
specific	-11.463
▁Fly	-11.4631
▁cheap	-11.4631
▁hopes	-11.4632
▁diamond	-11.4635
▁consequences	-11.4635
▁constitute	-11.4636
wara	-11.4637
▁intensity	-11.4637
▁Ah	-11.4638
▁biology	-11.464
▁Copa	-11.4645
▁sculptures	-11.4646
tana	-11.4649
▁Lam	-11.465
dict	-11.4652
▁Spi	-11.4656
▁badly	-11.4656
▁Watt	-11.4657
▁egg	-11.4658
▁files	-11.4659
▁sporting	-11.466
▁Subsequently	-11.4661
▁inaugurated	-11.4663
▁Programme	-11.4664
inae	-11.4664
▁Bog	-11.4665
▁stepped	-11.4665
▁Herald	-11.4666
version	-11.4667
▁Pete	-11.4677
▁favorable	-11.4679
▁hitting	-11.4679
cellular	-11.4681
▁Isaac	-11.4682
▁relate	-11.4683
lysis	-11.4683
will	-11.4683
nock	-11.4685
▁prompted	-11.4687
▁Mongolia	-11.4688
Ya	-11.4688
Cycl	-11.4692
cycle	-11.4692
▁Dem	-11.4692
isse	-11.4695
ienne	-11.4695
▁Kit	-11.4695
▁fare	-11.4695
▁absent	-11.4696
hak	-11.4699
▁interpreted	-11.47
▁measuring	-11.4702
▁separately	-11.4702
▁consequence	-11.4706
▁Holmes	-11.4709
this	-11.4709
▁sheep	-11.471
kai	-11.4711
▁Lucy	-11.4716
▁Kom	-11.4716
▁Flower	-11.4717
▁Geo	-11.4718
▁boarding	-11.472
▁laps	-11.4722
▁romance	-11.4722
▁antenna	-11.4723
▁pathway	-11.4723
▁hunt	-11.4724
▁cruiser	-11.4724
▁poster	-11.4727
rough	-11.4727
bow	-11.4729
▁Halifax	-11.4731
▁Chronicle	-11.4731
▁reader	-11.4735
▁Stre	-11.4735
▁IP	-11.4737
▁properly	-11.4738
urge	-11.474
gol	-11.474
just	-11.474
▁finale	-11.4742
ubb	-11.4742
▁Dom	-11.4744
▁Lie	-11.4745
▁skull	-11.4746
▁Richardson	-11.4746
▁varying	-11.4746
▁gig	-11.4747
rama	-11.4748
▁shaped	-11.4749
Arch	-11.4749
▁Istanbul	-11.4752
▁observer	-11.4753
▁CB	-11.4755
▁notion	-11.4755
▁Comedy	-11.4756
course	-11.4757
▁corridor	-11.4758
▁Legend	-11.4758
vu	-11.4758
Henry	-11.476
▁copyright	-11.4761
▁Swe	-11.4762
▁northeastern	-11.4767
park	-11.4768
ppen	-11.4769
Pen	-11.4775
Also	-11.4778
stroke	-11.4781
1970	-11.4781
▁Cornwall	-11.4781
▁authored	-11.479
dog	-11.4792
metre	-11.4798
▁beds	-11.4798
▁kilometres	-11.4799
Rolling	-11.4799
▁cruise	-11.48
charge	-11.4801
▁Pul	-11.4801
▁engineers	-11.4803
▁burning	-11.4803
▁Poly	-11.4805
▁Study	-11.4806
▁Viking	-11.4806
rift	-11.4809
Prince	-11.4809
▁Pav	-11.481
▁predator	-11.481
bh	-11.481
▁emigrated	-11.4811
zio	-11.4811
▁Take	-11.4814
▁Ancient	-11.4816
▁Foot	-11.4817
▁Watch	-11.4819
▁loved	-11.4821
▁Sox	-11.4821
▁specimen	-11.4822
mala	-11.4822
▁presidency	-11.4829
2001	-11.483
▁predicted	-11.4836
▁condemned	-11.4837
▁embassy	-11.4844
bahn	-11.4844
worm	-11.4845
▁orphan	-11.4845
script	-11.4846
▁Glass	-11.4846
▁banner	-11.4847
production	-11.4849
kir	-11.485
▁layers	-11.4851
▁parishes	-11.4852
▁Yard	-11.4852
▁AFC	-11.4852
/10	-11.4853
▁rector	-11.4855
national	-11.4858
▁Lyn	-11.4858
▁Erebidae	-11.4858
▁Gren	-11.4859
▁conclude	-11.486
▁mathematical	-11.4861
Song	-11.4863
▁PS	-11.4863
eight	-11.4863
▁Ballet	-11.4865
ambi	-11.4867
▁territorial	-11.4867
▁Bedford	-11.4868
▁Armstrong	-11.4868
▁constantly	-11.487
▁Rein	-11.4871
▁informal	-11.4872
▁repairs	-11.4872
litz	-11.4875
▁Wednesday	-11.4875
iac	-11.4876
▁versus	-11.4877
▁Him	-11.4878
▁neighbor	-11.4879
▁Wesley	-11.488
▁compact	-11.4884
▁backed	-11.4884
▁rational	-11.4885
City	-11.4886
▁occurring	-11.4888
▁Aboriginal	-11.4889
▁fatal	-11.489
▁Teacher	-11.489
HE	-11.489
▁tribal	-11.489
▁explosive	-11.4891
▁rookie	-11.4891
Der	-11.4891
▁Manor	-11.4893
iba	-11.4893
Brien	-11.4893
▁broadcaster	-11.4894
▁proposals	-11.4895
Nu	-11.4896
scription	-11.4897
did	-11.49
▁excess	-11.4901
▁Parliamentary	-11.4902
▁Chad	-11.4902
▁Henderson	-11.4903
▁depiction	-11.4903
Every	-11.4907
Jean	-11.4907
▁Julian	-11.4908
▁rush	-11.4914
▁tenant	-11.4915
tention	-11.4916
▁3–0	-11.492
▁Tiger	-11.4921
▁Darwin	-11.4925
▁Dub	-11.4925
hoot	-11.4925
▁kiss	-11.4926
▁affiliation	-11.4927
▁maker	-11.493
▁fix	-11.493
▁FBI	-11.4931
▁contestants	-11.4931
gha	-11.4933
lich	-11.4933
▁IBM	-11.4934
▁judgment	-11.4936
mper	-11.4938
▁ser	-11.494
▁dwelling	-11.4942
▁chip	-11.4946
▁Rachel	-11.4947
▁Architect	-11.4948
▁colours	-11.4948
▁Former	-11.4948
▁Course	-11.4948
leton	-11.4948
▁fuscous	-11.4948
▁crucial	-11.4949
pole	-11.495
▁shaft	-11.4951
▁UFC	-11.4954
▁synth	-11.4956
▁Naga	-11.4956
▁Chin	-11.4958
iddle	-11.4959
oku	-11.4959
▁Gujarat	-11.4961
got	-11.4961
▁twentieth	-11.4964
▁Salvador	-11.4967
hum	-11.4972
▁trips	-11.4973
▁Cornell	-11.4975
▁Bak	-11.4975
dependent	-11.4975
▁varieties	-11.4976
▁chess	-11.4977
tol	-11.4981
▁Grave	-11.4981
ön	-11.4981
▁Fifth	-11.4982
▁Writers	-11.4983
rib	-11.4985
▁"...	-11.4986
▁cru	-11.4986
▁mysterious	-11.4988
▁developers	-11.4989
fford	-11.4989
andra	-11.499
▁NO	-11.4991
▁performer	-11.4992
▁Tol	-11.4992
▁SH	-11.4993
▁Alexandria	-11.4994
iza	-11.4994
▁killer	-11.4995
zong	-11.4996
▁1845	-11.4996
▁IF	-11.4997
▁desired	-11.4997
LO	-11.4998
▁(0	-11.5
▁Organ	-11.5
▁Advanced	-11.5
▁Dale	-11.5002
▁vinyl	-11.5003
▁Marcel	-11.5003
ngel	-11.5004
omer	-11.5005
Etymology	-11.5006
▁Monument	-11.5006
Pra	-11.5007
gau	-11.5009
Russian	-11.5009
▁Pitt	-11.501
▁remind	-11.5014
Main	-11.5014
▁poorly	-11.5015
lore	-11.5016
▁160	-11.5018
▁highlighted	-11.5018
lake	-11.5019
▁Stu	-11.5019
anne	-11.5019
uca	-11.5021
Mel	-11.5021
▁shareholder	-11.5022
▁Hag	-11.5023
▁Ober	-11.5024
▁Pick	-11.5031
fil	-11.5031
▁cannon	-11.5031
▁loose	-11.5032
▁Ellen	-11.5034
▁proceedings	-11.5034
▁Shiva	-11.5036
methyl	-11.5038
▁freshman	-11.5038
▁premier	-11.5039
▁Academic	-11.504
▁Harbour	-11.5043
▁NASA	-11.5043
▁Moreover	-11.5045
▁Seoul	-11.5047
max	-11.5048
▁Finn	-11.5049
Jan	-11.5051
▁evaluation	-11.5051
▁Sheriff	-11.5052
▁advised	-11.5053
WR	-11.5054
▁rid	-11.5058
nine	-11.5059
Fer	-11.5061
lob	-11.5063
▁Belle	-11.5065
▁trim	-11.5066
▁disabled	-11.5067
zia	-11.5071
▁Progressive	-11.5071
▁quadr	-11.5071
▁Allan	-11.5072
▁statistical	-11.5073
north	-11.5074
▁Ama	-11.5074
▁sustainable	-11.5074
ipe	-11.5075
▁synthesis	-11.5076
▁thread	-11.5079
jer	-11.5079
▁Rao	-11.5079
▁starter	-11.5083
former	-11.5084
tori	-11.5085
▁NE	-11.5085
▁Drum	-11.5088
▁Kurt	-11.5088
Sun	-11.5089
▁Private	-11.5089
▁median	-11.5089
▁terrain	-11.5091
hausen	-11.5092
cient	-11.5093
NO	-11.5096
BO	-11.5098
▁Raw	-11.5099
▁rot	-11.5099
▁Tsu	-11.5099
▁mal	-11.51
▁ranch	-11.5101
liter	-11.5101
▁Bradford	-11.5102
▁rivalry	-11.5105
öl	-11.5106
▁Jesuit	-11.5107
ggy	-11.5107
▁Janeiro	-11.511
▁plaque	-11.5113
▁arise	-11.5113
witch	-11.5114
osaurus	-11.5116
▁Interstate	-11.5117
ische	-11.5119
▁Edmonton	-11.5125
▁Ranch	-11.5128
▁specified	-11.5129
pression	-11.5129
▁hypo	-11.5129
▁Canton	-11.5134
▁examined	-11.5134
▁Homer	-11.5136
▁afford	-11.5138
▁crowned	-11.5142
▁Fuji	-11.5142
▁derivative	-11.5143
phosph	-11.5143
structure	-11.5143
▁agrees	-11.5144
▁headline	-11.5146
▁François	-11.5147
▁Memphis	-11.5149
host	-11.5151
▁analyst	-11.5152
▁physically	-11.5153
issue	-11.5153
▁Paralympics	-11.5157
▁bacteria	-11.5157
▁confess	-11.5157
▁reject	-11.5158
▁confusion	-11.5159
▁Mack	-11.516
▁94	-11.516
khan	-11.5162
onne	-11.5164
telli	-11.5165
Bro	-11.5166
tree	-11.5166
chal	-11.5168
▁Musical	-11.5168
▁equally	-11.5168
▁kids	-11.5169
▁genera	-11.517
▁Cali	-11.5172
rz	-11.5172
▁Brewer	-11.5174
▁Burns	-11.5175
owe	-11.5176
▁Fitz	-11.5177
Med	-11.5178
▁Mik	-11.5179
▁Roma	-11.5179
Ur	-11.518
▁costa	-11.518
▁Merit	-11.5183
responsibilities	-11.5183
▁conceived	-11.5183
▁Tank	-11.5184
▁Thursday	-11.5185
▁Pir	-11.5193
▁knocked	-11.5194
▁conquest	-11.5195
▁authentic	-11.5195
mitt	-11.5198
kawa	-11.52
▁Duncan	-11.5201
Net	-11.5201
fiction	-11.5203
▁unofficial	-11.5203
▁waves	-11.5204
Public	-11.5205
crat	-11.5205
immer	-11.5206
Ac	-11.5209
▁snails	-11.5211
Eu	-11.5212
Modern	-11.5212
▁textile	-11.5212
▁warehouse	-11.5217
Queen	-11.5222
▁Mess	-11.5223
flu	-11.5224
ère	-11.5226
▁Cave	-11.5229
2003	-11.5229
America	-11.5232
maid	-11.5233
▁Kazakhstan	-11.5236
▁opposing	-11.5236
stream	-11.5237
chem	-11.5239
Cro	-11.524
▁remnant	-11.5242
▁hydrogen	-11.5244
▁Sig	-11.5246
▁Wonder	-11.5247
▁Chor	-11.5247
hap	-11.5249
Bill	-11.525
▁anger	-11.5251
▁trafficking	-11.5254
▁diagnosed	-11.5255
mag	-11.5257
▁quantum	-11.5257
▁kilo	-11.5258
▁UCI	-11.5259
▁estimates	-11.5262
▁peaceful	-11.5262
lough	-11.5263
▁Kro	-11.5265
amine	-11.5265
▁twist	-11.5267
storey	-11.5268
▁Gab	-11.5268
1,000	-11.5268
▁Cologne	-11.527
▁shrine	-11.5273
▁jointly	-11.5279
▁centered	-11.528
▁discussions	-11.528
Name	-11.5282
other	-11.5282
▁maternal	-11.5285
▁bread	-11.5287
background	-11.5288
Elect	-11.5288
▁Santiago	-11.5288
▁Szczecin	-11.5288
PT	-11.529
▁Clement	-11.5292
▁constituencies	-11.5292
▁magnetic	-11.5292
▁sunk	-11.5292
But	-11.5294
▁Winnipeg	-11.5295
▁grandmother	-11.5295
▁bowler	-11.5298
nah	-11.5299
▁Moor	-11.53
▁Edge	-11.5305
▁Cul	-11.5306
▁Eugene	-11.5306
▁batted	-11.5307
▁oak	-11.5308
▁125	-11.5309
onda	-11.531
DM	-11.5312
▁directing	-11.5314
▁eighteen	-11.5316
▁aerial	-11.5316
▁wildlife	-11.5317
▁Wie	-11.5317
▁circum	-11.5323
▁invested	-11.5324
▁Preston	-11.5324
▁dressed	-11.5326
bee	-11.5326
▁mutation	-11.5326
▁feud	-11.5327
TU	-11.5328
▁literally	-11.5328
unit	-11.5328
▁Border	-11.5328
rzy	-11.5329
vik	-11.533
▁revived	-11.5331
té	-11.5331
▁peninsula	-11.5335
▁motif	-11.5335
Pol	-11.5338
▁southeastern	-11.5339
▁Shadow	-11.534
▁Ple	-11.5341
Tru	-11.5341
▁Female	-11.5342
DO	-11.5343
▁Nav	-11.5343
▁appoint	-11.5347
▁donor	-11.5347
▁shrub	-11.5348
Tre	-11.5349
Dar	-11.535
▁Heat	-11.5355
bara	-11.5356
beat	-11.5356
▁reactor	-11.5358
▁boom	-11.5359
▁USSR	-11.5361
▁Lynn	-11.5363
▁CP	-11.5364
▁utility	-11.537
▁warrior	-11.537
buck	-11.5371
▁Case	-11.5372
▁certification	-11.5373
▁Sche	-11.5375
▁Let	-11.5376
▁Giovanni	-11.5376
▁Tibetan	-11.5376
▁canon	-11.5377
▁Settlement	-11.5379
▁retire	-11.538
Located	-11.5381
▁Wildlife	-11.5383
▁navy	-11.5384
▁Eva	-11.5384
▁1–1	-11.5385
bak	-11.5385
▁luxury	-11.5385
▁joke	-11.5386
▁embarked	-11.5387
Battle	-11.5391
▁Iceland	-11.5393
thus	-11.5393
▁Chancellor	-11.5393
▁Barnes	-11.5394
▁monuments	-11.5395
▁linguistic	-11.5399
▁Stevens	-11.5399
▁toxic	-11.5402
▁Ronald	-11.5402
jah	-11.5404
▁Warriors	-11.5404
▁cliff	-11.5404
▁Dru	-11.5405
▁voiced	-11.5405
ND	-11.5407
wang	-11.541
▁uprising	-11.5411
▁Colin	-11.5413
▁socio	-11.5415
▁recurring	-11.5417
▁Jake	-11.5417
steroid	-11.5418
▁compounds	-11.5418
▁deployment	-11.542
▁Jer	-11.5421
1980	-11.5427
atta	-11.5428
▁depart	-11.5429
▁apartments	-11.5433
▁Hum	-11.5436
flex	-11.5436
▁monster	-11.5436
▁Ages	-11.5437
▁tough	-11.5439
▁guarantee	-11.5442
▁hull	-11.5443
▁Against	-11.5447
▁Johan	-11.5448
▁submit	-11.5449
▁witnesses	-11.5452
▁flagship	-11.5452
▁Jesse	-11.5453
▁Hammer	-11.5454
▁enzyme	-11.5455
▁knowing	-11.5455
▁continental	-11.5456
▁punt	-11.5457
▁provider	-11.5457
▁garage	-11.5459
▁Graduate	-11.5461
▁Complex	-11.5465
▁Epi	-11.5467
▁obtaining	-11.5469
▁adviser	-11.5472
pack	-11.5473
▁Chennai	-11.5474
▁logic	-11.5481
haus	-11.5481
▁lung	-11.5482
▁Crystal	-11.5484
▁Armenia	-11.5486
powered	-11.5486
▁southwestern	-11.5489
▁Logan	-11.549
▁thermal	-11.549
▁observations	-11.5491
LI	-11.5492
▁Caroline	-11.5493
▁Reid	-11.5493
▁declaration	-11.5493
umble	-11.5496
▁Zimbabwe	-11.5496
president	-11.5496
▁Syn	-11.5497
▁OS	-11.5499
▁consecrated	-11.5499
▁scattered	-11.5499
▁clause	-11.5499
▁Saf	-11.5501
▁Rochester	-11.5502
Protect	-11.5502
▁currency	-11.5503
▁mud	-11.5505
▁Headquarters	-11.5506
Empire	-11.5506
▁Jung	-11.5508
▁Pam	-11.551
▁Flo	-11.551
▁Malaysian	-11.5513
▁comfort	-11.5513
▁Fraser	-11.5513
▁consumers	-11.5516
▁nicknamed	-11.5516
libera	-11.5516
▁raw	-11.5517
▁Link	-11.5517
▁meter	-11.5518
▁1812	-11.5519
▁Siege	-11.552
▁considerably	-11.552
▁delegate	-11.5521
▁email	-11.5523
▁vacant	-11.5525
▁Miles	-11.5525
tak	-11.5526
▁invention	-11.5529
▁barn	-11.5531
▁slopes	-11.5532
▁Malayalam	-11.5535
▁Kap	-11.5536
God	-11.5536
▁eliminate	-11.5538
▁rendered	-11.554
▁adequate	-11.5541
▁Hin	-11.5542
▁Nad	-11.5543
Mark	-11.5544
▁Worth	-11.5545
▁questioned	-11.5545
▁Baby	-11.5546
▁polar	-11.5546
▁console	-11.5548
▁prey	-11.5552
ographer	-11.5553
▁custody	-11.5554
▁preceding	-11.5554
▁Mich	-11.5554
▁loyal	-11.5557
vern	-11.5558
▁Baltic	-11.5559
fly	-11.5559
▁emerge	-11.5561
▁slight	-11.5561
established	-11.5564
▁Cecil	-11.5564
▁Marsh	-11.5565
Ran	-11.5565
mpton	-11.5568
▁Commercial	-11.5569
▁integral	-11.557
▁Brooks	-11.5571
▁enhance	-11.5571
owner	-11.5571
▁140	-11.5572
▁instructions	-11.5573
▁Marcus	-11.5573
lining	-11.5579
ñ	-11.5579
▁Lok	-11.5579
▁argue	-11.5581
▁Mod	-11.5585
▁statute	-11.5586
▁Devi	-11.5587
owo	-11.5587
▁shadow	-11.5587
▁Duck	-11.559
▁partnered	-11.5594
▁particles	-11.5598
helm	-11.5598
▁Physics	-11.5599
OM	-11.5604
▁pension	-11.5604
▁Yemen	-11.5605
▁shirt	-11.5608
Indian	-11.5608
wake	-11.5609
▁Luxembourg	-11.5611
▁weigh	-11.5614
▁initiatives	-11.5615
prop	-11.5616
gress	-11.5616
▁estimate	-11.5617
▁reserved	-11.5619
▁metre	-11.5619
▁advocated	-11.5622
▁variants	-11.5622
▁gather	-11.5623
▁stair	-11.5625
▁legendary	-11.5625
still	-11.5625
▁Gul	-11.5626
▁Jag	-11.5628
▁mechanisms	-11.563
kra	-11.563
▁arguing	-11.5631
▁Gustav	-11.5631
▁corn	-11.5631
▁Ley	-11.5633
ulous	-11.5633
▁Gala	-11.5634
▁Telugu	-11.5634
chair	-11.5635
inder	-11.5635
▁absorbed	-11.5636
▁Choice	-11.564
▁Doll	-11.5641
▁Chelsea	-11.5644
▁Cran	-11.5644
▁Meyer	-11.5645
▁Cambodia	-11.5647
▁generator	-11.5648
spec	-11.5649
util	-11.565
▁stamp	-11.5651
App	-11.5652
▁Mull	-11.5653
▁Seminary	-11.5653
▁granite	-11.5653
athlon	-11.5653
▁polymer	-11.5654
▁ease	-11.5654
▁Powell	-11.5654
▁hypothesis	-11.5657
▁Emily	-11.5659
plex	-11.5661
▁correspondent	-11.5662
▁Cairo	-11.5662
▁Strait	-11.5664
▁legally	-11.5664
▁Bengali	-11.5667
▁Screen	-11.5667
▁sacred	-11.567
▁Mega	-11.5671
▁Carlo	-11.5674
▁slate	-11.5675
▁cottage	-11.5676
▁liner	-11.5677
Gene	-11.5677
▁Bradley	-11.5681
▁overcome	-11.5682
▁Aberdeen	-11.5682
▁norm	-11.5683
Oh	-11.5684
Blanc	-11.5685
▁conspiracy	-11.5686
▁governed	-11.5689
▁tutor	-11.5692
▁Word	-11.5693
▁propose	-11.5694
Ven	-11.5696
▁Gol	-11.5698
▁Sebastian	-11.5699
▁navigation	-11.5699
▁abortion	-11.5699
▁exceptional	-11.5703
▁Bailey	-11.5703
▁spiral	-11.5705
▁Too	-11.5705
Mil	-11.5705
▁elimination	-11.5705
▁Cohen	-11.5705
▁donations	-11.571
NZ	-11.571
uster	-11.5712
▁harbour	-11.5712
▁voltage	-11.5715
▁Pic	-11.5718
series	-11.572
ody	-11.572
▁Sant	-11.5721
▁scenario	-11.5721
▁nose	-11.5721
▁accidentally	-11.5723
▁harsh	-11.5725
Though	-11.5727
jack	-11.5728
PE	-11.5728
▁Gaza	-11.5728
Tur	-11.5729
▁marker	-11.573
▁civic	-11.5731
▁virtually	-11.5732
Character	-11.5735
▁Log	-11.5735
▁tonnes	-11.5736
▁Again	-11.5737
▁Clay	-11.5739
▁Kla	-11.5742
▁discharge	-11.5743
esse	-11.5745
ryn	-11.5745
▁erect	-11.5749
-13	-11.5751
BI	-11.5751
▁Shak	-11.5753
cole	-11.5753
Now	-11.5753
▁Wagner	-11.5754
▁Found	-11.5754
cou	-11.5755
nath	-11.5756
▁Julie	-11.5756
▁Prussian	-11.5762
Radio	-11.5762
▁inspection	-11.5767
▁undertook	-11.577
watt	-11.5771
▁proven	-11.5772
▁Adrian	-11.5773
▁eating	-11.5776
▁batteries	-11.5778
▁Jamie	-11.5779
.0%	-11.578
dah	-11.5782
▁Step	-11.5784
▁Liberation	-11.5786
▁challenging	-11.5787
▁Account	-11.5787
▁Mile	-11.5788
▁vegetable	-11.579
▁Orlando	-11.579
▁Papua	-11.5791
▁Potter	-11.5791
▁ibn	-11.5791
▁Investment	-11.5792
▁recommendations	-11.5792
▁delegates	-11.5794
▁imported	-11.5795
▁accuracy	-11.5797
▁Colony	-11.5797
Religion	-11.58
grand	-11.58
40,000	-11.5801
▁outlets	-11.5802
▁WA	-11.5804
onian	-11.5806
▁translator	-11.5806
▁vulnerable	-11.581
Long	-11.5811
▁Industries	-11.5813
2,000	-11.5813
MU	-11.5814
▁Kyle	-11.5815
▁nursing	-11.5816
▁Superior	-11.5817
Aftermath	-11.5817
union	-11.5818
good	-11.5819
▁advancing	-11.582
▁remarkable	-11.582
▁Tau	-11.582
fight	-11.5822
▁1820	-11.5823
Engine	-11.5826
▁optical	-11.5827
▁Dow	-11.5829
▁proximity	-11.5829
▁vowel	-11.5829
▁accompanying	-11.5831
▁mph	-11.5833
▁Thur	-11.5833
▁freestyle	-11.5833
▁activated	-11.5835
mart	-11.5835
▁propaganda	-11.5836
▁batsman	-11.5836
▁screened	-11.5837
▁Leslie	-11.5837
▁reconnaissance	-11.5839
▁Sum	-11.5841
▁Apart	-11.5841
tique	-11.5841
gla	-11.5841
▁Deutsche	-11.5842
▁1844	-11.5843
▁punch	-11.5844
▁Pil	-11.5845
▁hymn	-11.5846
▁NATO	-11.5846
nh	-11.5848
▁assess	-11.5848
party	-11.5848
neur	-11.5848
▁Vatican	-11.5849
▁Gerald	-11.5849
▁canton	-11.585
▁Picture	-11.5851
WC	-11.5854
▁Budapest	-11.5856
▁Counties	-11.5856
▁Brave	-11.5859
original	-11.5866
Mary	-11.5868
▁Ble	-11.5869
▁monarch	-11.587
▁sponsorship	-11.5871
▁detective	-11.5875
▁Tyler	-11.5875
mura	-11.5877
▁slope	-11.5878
▁Idaho	-11.5879
▁Naples	-11.5879
▁Plaza	-11.5881
▁Talk	-11.5884
▁Casa	-11.5884
gru	-11.5885
etto	-11.5886
▁bias	-11.5889
▁contracted	-11.5892
▁vegetation	-11.5892
▁alumni	-11.5892
▁cord	-11.5894
mia	-11.5894
hui	-11.5897
▁Pod	-11.5897
▁explored	-11.5899
▁Spec	-11.5903
▁watershed	-11.5904
holm	-11.5904
▁Trent	-11.5908
▁rescued	-11.5909
▁algebra	-11.5909
zier	-11.5909
▁synonym	-11.5909
▁dish	-11.591
Tro	-11.5911
▁consistently	-11.5912
▁Glo	-11.5914
▁Agricultural	-11.5915
number	-11.5919
patri	-11.5919
tina	-11.5924
▁sweep	-11.5925
evich	-11.5927
Ireland	-11.5929
▁achieving	-11.5932
▁removing	-11.5932
▁bush	-11.5938
riot	-11.594
▁epic	-11.5944
▁Month	-11.5944
▁Gibson	-11.5945
▁Mail	-11.5946
itter	-11.5946
▁recreational	-11.5948
▁RT	-11.5949
▁palm	-11.595
▁lesbian	-11.5955
▁McDonald	-11.5955
▁disrupt	-11.5956
▁Factory	-11.5958
spons	-11.5958
Hor	-11.5961
▁streaming	-11.5963
▁payments	-11.5964
Ban	-11.5968
▁Tat	-11.5969
▁patch	-11.5971
Back	-11.5974
▁Flag	-11.5975
▁laser	-11.5975
▁descend	-11.5976
ective	-11.5977
▁decorative	-11.5978
▁sphere	-11.5979
▁depends	-11.5979
▁1837	-11.598
▁sensitive	-11.5981
Media	-11.5983
▁sandstone	-11.5983
▁Tennis	-11.5984
nier	-11.5986
▁arrange	-11.5986
▁mystery	-11.5989
Rob	-11.599
▁realizes	-11.5991
▁builder	-11.5991
▁Raz	-11.5991
▁Madras	-11.5992
▁Qatar	-11.5993
▁Burton	-11.5994
▁prohibited	-11.5995
▁Any	-11.5995
▁Nico	-11.5996
▁slavery	-11.5997
▁Arsenal	-11.5999
▁tourists	-11.6003
▁nave	-11.6003
▁Desert	-11.6007
▁endangered	-11.6009
forming	-11.6009
▁revolve	-11.601
harm	-11.6011
Mur	-11.6012
riv	-11.6012
▁compromise	-11.6012
berger	-11.6014
▁Wick	-11.6014
pod	-11.602
NY	-11.6021
▁climbing	-11.6022
▁truly	-11.6022
train	-11.6024
▁Harper	-11.6025
▁Arn	-11.6026
▁Summit	-11.6027
▁container	-11.6027
hou	-11.6028
▁investigator	-11.6029
▁prosecution	-11.6029
▁Insurance	-11.6029
▁LLC	-11.6031
enda	-11.6033
▁unsuccessfully	-11.6033
▁elderly	-11.6033
eater	-11.6035
▁Roth	-11.6035
▁drag	-11.6035
▁obligation	-11.6035
Broadcast	-11.6037
▁robot	-11.6037
mounted	-11.6039
burgh	-11.604
Martin	-11.6041
Institut	-11.6041
writing	-11.6042
capit	-11.6043
School	-11.6044
▁apex	-11.6047
▁striker	-11.6048
kind	-11.6049
House	-11.6051
▁essays	-11.6051
tribute	-11.6054
▁silk	-11.6054
▁pine	-11.6054
▁spectrum	-11.6056
▁uncertain	-11.6057
▁Johnston	-11.6057
–11	-11.6058
kam	-11.6059
disc	-11.6061
Outside	-11.6062
▁tickets	-11.6062
▁quota	-11.6062
▁strange	-11.6065
iter	-11.6068
▁lamp	-11.6069
uku	-11.607
dad	-11.6072
▁necessarily	-11.6072
▁Dong	-11.6073
▁Paper	-11.6074
▁boiler	-11.6076
▁surrendered	-11.6076
Wind	-11.6077
isi	-11.6078
▁professionally	-11.6081
▁spelling	-11.6086
clar	-11.6087
▁chaired	-11.6088
eter	-11.6089
▁dust	-11.6091
▁playwright	-11.6091
▁salary	-11.6093
▁charted	-11.6095
▁submission	-11.6095
▁CR	-11.6096
Sports	-11.6098
▁continuously	-11.61
Christian	-11.6101
▁Working	-11.6104
GM	-11.6106
▁Feature	-11.6107
▁canvas	-11.6108
opod	-11.6108
moor	-11.6108
▁(20	-11.6108
▁Julia	-11.6108
▁crashed	-11.6111
▁quarterfinals	-11.6111
▁placement	-11.6114
oko	-11.6117
▁Planet	-11.6117
enstein	-11.6117
Composition	-11.6118
father	-11.6119
▁modest	-11.6119
worthy	-11.612
SN	-11.6122
▁Haven	-11.6122
3,000	-11.6123
opa	-11.6125
▁Belfast	-11.6127
▁pageant	-11.6127
Academic	-11.6129
▁Amateur	-11.6129
Marriage	-11.613
▁styl	-11.6131
▁(2011)	-11.6132
ppy	-11.6133
▁chronicle	-11.6133
▁Khal	-11.6133
▁Via	-11.6136
France	-11.6137
▁fed	-11.6141
▁Herzegovina	-11.6143
▁item	-11.6144
▁naturally	-11.6144
▁blast	-11.6146
▁surveillance	-11.6147
▁Hip	-11.6149
4.5	-11.6151
conscious	-11.6156
liev	-11.6159
acre	-11.6161
engine	-11.6162
▁narrowly	-11.6162
cup	-11.6162
▁illustrations	-11.6163
▁drunk	-11.6164
▁purple	-11.6165
▁merit	-11.6166
psy	-11.6169
▁offence	-11.6169
typ	-11.6172
▁Tibet	-11.6175
▁20,000	-11.6177
▁coordinator	-11.6177
▁certainly	-11.6182
Further	-11.6184
▁leather	-11.6184
▁underlying	-11.6186
▁ceremonies	-11.6188
▁Springfield	-11.6188
▁Crist	-11.619
▁Porter	-11.6191
▁gentle	-11.6191
▁Animal	-11.6191
▁bones	-11.6192
▁Canyon	-11.6192
asco	-11.6196
▁Boat	-11.6196
▁Panthers	-11.6198
Count	-11.62
▁commercially	-11.62
Ham	-11.6201
▁deposit	-11.6201
▁Zhu	-11.6204
▁probability	-11.6205
▁Notre	-11.6205
LD	-11.6206
Player	-11.6207
▁brutal	-11.6208
▁Til	-11.6209
Dun	-11.6211
Even	-11.6211
▁Lancaster	-11.6212
grave	-11.6213
▁Brother	-11.6213
▁deceased	-11.6215
▁Mobile	-11.6215
▁Hopkins	-11.6215
Cho	-11.6216
▁fake	-11.6216
▁suburban	-11.6217
▁Rica	-11.6218
physi	-11.6219
TH	-11.622
▁dealt	-11.6223
UK	-11.6223
▁doctoral	-11.6225
▁interrupted	-11.6226
▁endorsed	-11.6227
▁curved	-11.6228
▁sad	-11.623
▁Pink	-11.623
suit	-11.6233
show	-11.6235
▁tar	-11.6236
dder	-11.6237
▁Tuesday	-11.6242
▁trademark	-11.6243
▁sudden	-11.6247
▁catalogue	-11.6247
▁vent	-11.6249
▁emissions	-11.625
▁Cir	-11.625
▁Era	-11.6252
▁Marshal	-11.6253
▁ingredient	-11.6253
fast	-11.6253
▁Guatemala	-11.6256
▁Latvia	-11.6258
▁refuge	-11.6258
▁Fiji	-11.6258
▁Wyoming	-11.6259
▁Cort	-11.6263
▁1839	-11.6263
▁rubber	-11.6264
▁comprised	-11.6267
▁Plymouth	-11.627
rica	-11.627
▁Governorate	-11.6271
▁organizing	-11.6271
▁Hick	-11.6272
▁rode	-11.6275
▁theorem	-11.6275
▁disk	-11.6279
▁insight	-11.628
▁Inspector	-11.628
▁NSW	-11.6281
▁congress	-11.6281
▁CIA	-11.6283
▁chest	-11.6285
▁Where	-11.6287
▁1841	-11.6287
cei	-11.6287
▁Wer	-11.6287
▁Mora	-11.6297
▁preceded	-11.6297
▁Windsor	-11.6298
▁Faith	-11.6298
▁Sisters	-11.6298
▁cycling	-11.6301
▁Presidential	-11.6302
friend	-11.6302
▁Criminal	-11.6304
mph	-11.6305
▁feeding	-11.6305
Semi	-11.6309
▁Bavaria	-11.631
MF	-11.6311
rani	-11.6312
▁priority	-11.6313
▁systematic	-11.6313
▁Using	-11.6314
▁proceeds	-11.6315
▁subordinate	-11.6315
▁Dubai	-11.6316
▁Qi	-11.6317
▁2019–20	-11.6317
▁Gandhi	-11.6318
noy	-11.6318
Synopsis	-11.6322
▁Kot	-11.6323
▁reopened	-11.6325
▁Apollo	-11.6325
▁Mach	-11.6328
▁planted	-11.6328
▁Elementary	-11.6328
hof	-11.6328
Military	-11.6329
▁Robertson	-11.6329
Grand	-11.633
▁Boeing	-11.6336
Sol	-11.6338
▁dimensions	-11.634
▁AFL	-11.6344
▁urged	-11.6346
▁lone	-11.6347
▁Depression	-11.6348
▁lodge	-11.635
▁Southwest	-11.6352
zha	-11.6354
ubi	-11.6357
bbe	-11.6357
▁attractive	-11.6361
▁trunk	-11.6363
riya	-11.6364
wrote	-11.6364
▁accounting	-11.6365
lá	-11.6366
▁detection	-11.6366
▁Pyr	-11.6367
▁noticed	-11.6368
formed	-11.6368
▁Fran	-11.6368
▁Nacional	-11.637
author	-11.6371
▁complaints	-11.6374
▁eu	-11.6374
▁Pap	-11.6375
▁Level	-11.6378
▁believing	-11.638
psi	-11.638
▁melt	-11.6383
▁Flu	-11.6383
▁blade	-11.6385
▁1838	-11.6389
Ultimate	-11.6391
▁chassis	-11.6391
▁Cad	-11.6391
▁Critics	-11.6391
▁1836	-11.6392
Tor	-11.6393
▁resides	-11.6394
▁reluctant	-11.6394
▁Indoor	-11.6395
isch	-11.6395
▁Singer	-11.6396
▁realm	-11.6396
▁lend	-11.6396
▁availability	-11.6398
bour	-11.6398
ffy	-11.6399
▁NASCAR	-11.6405
▁healthy	-11.6407
▁Lud	-11.641
▁Leicester	-11.6411
▁Kosovo	-11.6412
▁inception	-11.6414
▁seating	-11.6414
▁bracket	-11.6419
current	-11.642
osi	-11.642
▁Grim	-11.642
RF	-11.6421
500,000	-11.6422
▁presenting	-11.6422
▁mild	-11.6425
▁VIII	-11.6426
▁Rot	-11.6429
▁Valencia	-11.6433
Geographic	-11.6434
▁Erik	-11.6435
▁hurt	-11.6435
rett	-11.6435
▁licence	-11.6436
troph	-11.6437
▁appealed	-11.6439
▁portrayal	-11.644
ppel	-11.644
▁inquiry	-11.644
8%	-11.6442
▁economist	-11.6443
▁Sie	-11.6444
▁Silva	-11.6444
▁humor	-11.6445
BM	-11.6445
▁Mini	-11.6445
▁vaccine	-11.6447
▁Marian	-11.6447
▁Astro	-11.645
jay	-11.645
cephal	-11.6454
▁Hawaiian	-11.6456
▁collegiate	-11.6457
▁Tanzania	-11.6461
▁stamps	-11.6462
▁Tara	-11.6462
Fra	-11.6463
Kan	-11.6465
▁(2013)	-11.6469
▁declare	-11.647
kun	-11.647
▁arose	-11.6471
▁Kane	-11.6472
▁admire	-11.6473
▁Ent	-11.6477
▁Tortricidae	-11.6478
Various	-11.6479
▁Morrison	-11.6479
▁equality	-11.648
▁1991)	-11.6482
▁(2010)	-11.6483
▁dancers	-11.6485
▁jam	-11.6486
▁outfit	-11.6487
▁whitish	-11.6489
▁calculated	-11.649
Water	-11.6492
Additional	-11.6492
▁Turn	-11.6494
▁armor	-11.6494
▁Arctic	-11.6497
▁prosecutor	-11.6499
▁Ek	-11.6501
quarter	-11.6501
there	-11.6503
▁Kala	-11.6504
▁sitcom	-11.6505
▁Without	-11.6509
▁10%	-11.6509
▁brake	-11.6509
▁sentiment	-11.651
▁Aviv	-11.6512
▁carefully	-11.6515
kol	-11.6516
▁curator	-11.6519
▁Population	-11.652
▁punish	-11.652
▁knockout	-11.6525
▁codice	-11.6526
▁Bharat	-11.6527
▁Initiative	-11.6527
▁prominence	-11.6531
▁tumor	-11.6534
prising	-11.6535
▁Dock	-11.6536
acher	-11.6537
▁Holl	-11.6541
▁anonymous	-11.6542
▁Libya	-11.6544
▁Gram	-11.6544
▁Reynolds	-11.6545
▁factories	-11.6546
▁Macedonia	-11.6546
▁cyclone	-11.6547
Former	-11.6547
▁Photo	-11.6547
Neill	-11.6552
Social	-11.6552
oxy	-11.6554
▁Lum	-11.6554
[...]
